{
  "version": "1.0",
  "truncation": {
    "direction": "Right",
    "max_length": 256,
    "strategy": "LongestFirst",
    "stride": 0
  },
  "padding": null,
  "added_tokens": [
    {
      "id": 0,
      "content": "[PAD]",
      "single_word": false,
      "lstrip": false,
      "rstrip": false,
      "normalized": false,
      "special": true
    },
    {
      "id": 1,
      "content": "[UNK]",
      "single_word": false,
      "lstrip": false,
      "rstrip": false,
      "normalized": false,
      "special": true
    },
    {
      "id": 2,
      "content": "[CLS]",
      "single_word": false,
      "lstrip": false,
      "rstrip": false,
      "normalized": false,
      "special": true
    },
    {
      "id": 3,
      "content": "[SEP]",
      "single_word": false,
      "lstrip": false,
      "rstrip": false,
      "normalized": false,
      "special": true
    },
    {
      "id": 4,
      "content": "[MASK]",
      "single_word": false,
      "lstrip": false,
      "rstrip": false,
      "normalized": false,
      "special": true
    }
  ],
  "normalizer": {
    "type": "BertNormalizer",
    "clean_text": true,
    "handle_chinese_chars": true,
    "strip_accents": false,
    "lowercase": false
  },
  "pre_tokenizer": {
    "type": "BertPreTokenizer"
  },
  "post_processor": {
    "type": "TemplateProcessing",
    "single": [
      {
        "SpecialToken": {
          "id": "[CLS]",
          "type_id": 0
        }
      },
      {
        "Sequence": {
          "id": "A",
          "type_id": 0
        }
      },
      {
        "SpecialToken": {
          "id": "[SEP]",
          "type_id": 0
        }
      }
    ],
    "pair": [
      {
        "Sequence": {
          "id": "A",
          "type_id": 0
        }
      },
      {
        "Sequence": {
          "id": "B",
          "type_id": 1
        }
      }
    ],
    "special_tokens": {
      "[CLS]": {
        "id": "[CLS]",
        "ids": [
          2
        ],
        "tokens": [
          "[CLS]"
        ]
      },
      "[SEP]": {
        "id": "[SEP]",
        "ids": [
          3
        ],
        "tokens": [
          "[SEP]"
        ]
      }
    }
  },
  "decoder": null,
  "model": {
    "type": "WordPiece",
    "unk_token": "[UNK]",
    "continuing_subword_prefix": "##",
    "max_input_chars_per_word": 100,
    "vocab": {
      "[PAD]": 0,
      "[UNK]": 1,
      "[CLS]": 2,
      "[SEP]": 3,
      "[MASK]": 4,
      "!": 5,
      "\"": 6,
      "#": 7,
      "$": 8,
      "%": 9,
      "&": 10,
      "'": 11,
      "(": 12,
      ")": 13,
      "*": 14,
      "+": 15,
      ",": 16,
      "-": 17,
      ".": 18,
      "/": 19,
      "0": 20,
      "1": 21,
      "2": 22,
      "3": 23,
      "4": 24,
      "5": 25,
      "6": 26,
      "7": 27,
      "8": 28,
      "9": 29,
      ":": 30,
      ";": 31,
      "<": 32,
      "=": 33,
      ">": 34,
      "?": 35,
      "@": 36,
      "A": 37,
      "B": 38,
      "C": 39,
      "D": 40,
      "E": 41,
      "F": 42,
      "G": 43,
      "H": 44,
      "I": 45,
      "J": 46,
      "K": 47,
      "L": 48,
      "M": 49,
      "N": 50,
      "O": 51,
      "P": 52,
      "Q": 53,
      "R": 54,
      "S": 55,
      "T": 56,
      "U": 57,
      "V": 58,
      "W": 59,
      "X": 60,
      "Y": 61,
      "Z": 62,
      "[": 63,
      "\\": 64,
      "]": 65,
      "^": 66,
      "_": 67,
      "`": 68,
      "a": 69,
      "b": 70,
      "c": 71,
      "d": 72,
      "e": 73,
      "f": 74,
      "g": 75,
      "h": 76,
      "i": 77,
      "j": 78,
      "k": 79,
      "l": 80,
      "m": 81,
      "n": 82,
      "o": 83,
      "p": 84,
      "q": 85,
      "r": 86,
      "s": 87,
      "t": 88,
      "u": 89,
      "v": 90,
      "w": 91,
      "x": 92,
      "y": 93,
      "z": 94,
      "{": 95,
      "|": 96,
      "}": 97,
      "~": 98,
      "¢": 99,
      "¥": 100,
      "§": 101,
      "©": 102,
      "«": 103,
      "¬": 104,
      "®": 105,
      "¯": 106,
      "°": 107,
      "±": 108,
      "²": 109,
      "³": 110,
      "´": 111,
      "µ": 112,
      "·": 113,
      "¹": 114,
      "º": 115,
      "»": 116,
      "½": 117,
      "À": 118,
      "Ä": 119,
      "Å": 120,
      "É": 121,
      "Í": 122,
      "×": 123,
      "Ø": 124,
      "Ü": 125,
      "ß": 126,
      "à": 127,
      "á": 128,
      "â": 129,
      "ä": 130,
      "æ": 131,
      "ç": 132,
      "è": 133,
      "é": 134,
      "ê": 135,
      "ë": 136,
      "ì": 137,
      "î": 138,
      "ñ": 139,
      "ò": 140,
      "ó": 141,
      "ô": 142,
      "ö": 143,
      "÷": 144,
      "ø": 145,
      "ú": 146,
      "ü": 147,
      "ā": 148,
      "ă": 149,
      "ć": 150,
      "č": 151,
      "Đ": 152,
      "đ": 153,
      "Ĥ": 154,
      "ħ": 155,
      "ī": 156,
      "ŋ": 157,
      "ō": 158,
      "ŏ": 159,
      "ś": 160,
      "Š": 161,
      "š": 162,
      "ū": 163,
      "ŷ": 164,
      "Ž": 165,
      "ƒ": 166,
      "ơ": 167,
      "ƪ": 168,
      "ư": 169,
      "ǐ": 170,
      "ǒ": 171,
      "Ƿ": 172,
      "ș": 173,
      "ɒ": 174,
      "ɔ": 175,
      "ə": 176,
      "ɪ": 177,
      "ʃ": 178,
      "ʒ": 179,
      "ʔ": 180,
      "ʕ": 181,
      "ʖ": 182,
      "ʹ": 183,
      "ʾ": 184,
      "˄": 185,
      "ˈ": 186,
      "ˉ": 187,
      "ˌ": 188,
      "ˍ": 189,
      "˘": 190,
      "˙": 191,
      "˵": 192,
      "˶": 193,
      "̀": 194,
      "́": 195,
      "̂": 196,
      "̃": 197,
      "̅": 198,
      "̑": 199,
      "̗": 200,
      "̤": 201,
      "̥": 202,
      "̫": 203,
      "̲": 204,
      "̶": 205,
      "̀": 206,
      "͈": 207,
      "͜": 208,
      "͡": 209,
      "Δ": 210,
      "Ν": 211,
      "Π": 212,
      "Σ": 213,
      "Φ": 214,
      "Ψ": 215,
      "Ω": 216,
      "ά": 217,
      "έ": 218,
      "ή": 219,
      "ί": 220,
      "α": 221,
      "β": 222,
      "γ": 223,
      "δ": 224,
      "ε": 225,
      "η": 226,
      "θ": 227,
      "ι": 228,
      "κ": 229,
      "λ": 230,
      "μ": 231,
      "ν": 232,
      "ξ": 233,
      "ο": 234,
      "π": 235,
      "ρ": 236,
      "ς": 237,
      "σ": 238,
      "τ": 239,
      "υ": 240,
      "φ": 241,
      "χ": 242,
      "ψ": 243,
      "ω": 244,
      "ό": 245,
      "ύ": 246,
      "ώ": 247,
      "А": 248,
      "Б": 249,
      "В": 250,
      "Г": 251,
      "Д": 252,
      "Е": 253,
      "Ж": 254,
      "З": 255,
      "И": 256,
      "К": 257,
      "Л": 258,
      "М": 259,
      "Н": 260,
      "О": 261,
      "П": 262,
      "Р": 263,
      "С": 264,
      "Т": 265,
      "У": 266,
      "Ф": 267,
      "Х": 268,
      "Ц": 269,
      "Ч": 270,
      "Ш": 271,
      "Ь": 272,
      "Э": 273,
      "Ю": 274,
      "Я": 275,
      "а": 276,
      "б": 277,
      "в": 278,
      "г": 279,
      "д": 280,
      "е": 281,
      "ж": 282,
      "з": 283,
      "и": 284,
      "й": 285,
      "к": 286,
      "л": 287,
      "м": 288,
      "н": 289,
      "о": 290,
      "п": 291,
      "р": 292,
      "с": 293,
      "т": 294,
      "у": 295,
      "ф": 296,
      "х": 297,
      "ц": 298,
      "ч": 299,
      "ш": 300,
      "щ": 301,
      "ъ": 302,
      "ы": 303,
      "ь": 304,
      "э": 305,
      "ю": 306,
      "я": 307,
      "ԅ": 308,
      "Ծ": 309,
      "क": 310,
      "ग": 311,
      "म": 312,
      "୧": 313,
      "୨": 314,
      "୭": 315,
      "ಡ": 316,
      "ಥ": 317,
      "ฅ": 318,
      "ง": 319,
      "ิ": 320,
      "๑": 321,
      "ິ": 322,
      "ຶ": 323,
      "༎": 324,
      "༝": 325,
      "ཀ": 326,
      "ღ": 327,
      "ᆺ": 328,
      "ᐡ": 329,
      "ᥬ": 330,
      "᭄": 331,
      "ᴗ": 332,
      "ᴥ": 333,
      "ᵀ": 334,
      "ᵎ": 335,
      "ᵏ": 336,
      "ᵒ": 337,
      "ᵔ": 338,
      "ᵕ": 339,
      "ᵢ": 340,
      "᷄": 341,
      "᷅": 342,
      "Ḥ": 343,
      "ḥ": 344,
      "ẋ": 345,
      "ả": 346,
      "ấ": 347,
      "ậ": 348,
      "ế": 349,
      "ề": 350,
      "ệ": 351,
      "ị": 352,
      "ộ": 353,
      "ợ": 354,
      "ỹ": 355,
      "ἀ": 356,
      "ἄ": 357,
      "ἐ": 358,
      "ἔ": 359,
      "Ἕ": 360,
      "ἡ": 361,
      "ἰ": 362,
      "ἴ": 363,
      "ἶ": 364,
      "ὐ": 365,
      "ὑ": 366,
      "ὕ": 367,
      "ὰ": 368,
      "ὴ": 369,
      "ὶ": 370,
      "ὸ": 371,
      "ῆ": 372,
      "ῖ": 373,
      "ῥ": 374,
      "ῦ": 375,
      "ῶ": 376,
      "‑": 377,
      "–": 378,
      "—": 379,
      "―": 380,
      "‖": 381,
      "‘": 382,
      "’": 383,
      "“": 384,
      "”": 385,
      "†": 386,
      "•": 387,
      "…": 388,
      "‧": 389,
      "‰": 390,
      "′": 391,
      "″": 392,
      "‸": 393,
      "※": 394,
      "‼": 395,
      "‾": 396,
      "‿": 397,
      "⁄": 398,
      "⁰": 399,
      "⁴": 400,
      "⁵": 401,
      "⁶": 402,
      "⁷": 403,
      "⁸": 404,
      "⁹": 405,
      "⁺": 406,
      "⁻": 407,
      "₀": 408,
      "₁": 409,
      "₂": 410,
      "₃": 411,
      "₄": 412,
      "₅": 413,
      "₊": 414,
      "₍": 415,
      "₎": 416,
      "ₖ": 417,
      "ₗ": 418,
      "ₙ": 419,
      "ₜ": 420,
      "⃣": 421,
      "℃": 422,
      "℉": 423,
      "ℏ": 424,
      "ℕ": 425,
      "№": 426,
      "ℝ": 427,
      "™": 428,
      "ℤ": 429,
      "ℵ": 430,
      "Ⅰ": 431,
      "Ⅱ": 432,
      "Ⅲ": 433,
      "Ⅳ": 434,
      "Ⅴ": 435,
      "Ⅵ": 436,
      "Ⅶ": 437,
      "Ⅷ": 438,
      "Ⅸ": 439,
      "Ⅹ": 440,
      "Ⅺ": 441,
      "Ⅻ": 442,
      "ⅹ": 443,
      "←": 444,
      "↑": 445,
      "→": 446,
      "↓": 447,
      "↗": 448,
      "⇒": 449,
      "∀": 450,
      "∂": 451,
      "∃": 452,
      "∅": 453,
      "∇": 454,
      "∈": 455,
      "∏": 456,
      "−": 457,
      "∗": 458,
      "√": 459,
      "∞": 460,
      "∠": 461,
      "∧": 462,
      "∨": 463,
      "∩": 464,
      "∫": 465,
      "∴": 466,
      "∶": 467,
      "∽": 468,
      "≈": 469,
      "≠": 470,
      "≤": 471,
      "≥": 472,
      "≦": 473,
      "≧": 474,
      "≪": 475,
      "⊆": 476,
      "⊙": 477,
      "⊨": 478,
      "⋯": 479,
      "⌈": 480,
      "⌉": 481,
      "⌊": 482,
      "⌋": 483,
      "⌔": 484,
      "⌣": 485,
      "⏰": 486,
      "①": 487,
      "②": 488,
      "③": 489,
      "④": 490,
      "⑤": 491,
      "⑥": 492,
      "⑦": 493,
      "⑧": 494,
      "⑨": 495,
      "⑩": 496,
      "⑪": 497,
      "⑫": 498,
      "⑬": 499,
      "⑴": 500,
      "⑵": 501,
      "⑶": 502,
      "⑷": 503,
      "⒈": 504,
      "⒉": 505,
      "⒊": 506,
      "⒋": 507,
      "─": 508,
      "━": 509,
      "│": 510,
      "┌": 511,
      "┐": 512,
      "└": 513,
      "┘": 514,
      "├": 515,
      "┤": 516,
      "┯": 517,
      "╥": 518,
      "╭": 519,
      "╯": 520,
      "╰": 521,
      "█": 522,
      "▎": 523,
      "■": 524,
      "□": 525,
      "▪": 526,
      "▲": 527,
      "△": 528,
      "▶": 529,
      "▸": 530,
      "▼": 531,
      "▽": 532,
      "◆": 533,
      "◇": 534,
      "◉": 535,
      "◊": 536,
      "○": 537,
      "◍": 538,
      "◎": 539,
      "●": 540,
      "◐": 541,
      "◑": 542,
      "◞": 543,
      "◡": 544,
      "◦": 545,
      "☀": 546,
      "★": 547,
      "☆": 548,
      "☎": 549,
      "☐": 550,
      "☑": 551,
      "☘": 552,
      "☝": 553,
      "☞": 554,
      "☺": 555,
      "♀": 556,
      "♥": 557,
      "♦": 558,
      "♨": 559,
      "♪": 560,
      "♬": 561,
      "♭": 562,
      "♮": 563,
      "♯": 564,
      "⚖": 565,
      "⚙": 566,
      "⚛": 567,
      "⚝": 568,
      "⚠": 569,
      "✅": 570,
      "✈": 571,
      "✉": 572,
      "✊": 573,
      "✋": 574,
      "✌": 575,
      "✍": 576,
      "✓": 577,
      "✔": 578,
      "✕": 579,
      "✖": 580,
      "✗": 581,
      "✘": 582,
      "✚": 583,
      "✧": 584,
      "✨": 585,
      "✩": 586,
      "✪": 587,
      "✲": 588,
      "✿": 589,
      "❁": 590,
      "❌": 591,
      "❓": 592,
      "❗": 593,
      "❤": 594,
      "❶": 595,
      "❷": 596,
      "❸": 597,
      "❹": 598,
      "❺": 599,
      "➕": 600,
      "➖": 601,
      "➡": 602,
      "⟨": 603,
      "⟩": 604,
      "⠀": 605,
      "⤵": 606,
      "⦁": 607,
      "⩊": 608,
      "⬇": 609,
      "⭐": 610,
      "⭕": 611,
      "ⱼ": 612,
      "⸝": 613,
      "⸻": 614,
      "⺟": 615,
      "⻄": 616,
      "⻅": 617,
      "⻆": 618,
      "⻓": 619,
      "⻔": 620,
      "⻛": 621,
      "⻢": 622,
      "⻩": 623,
      "⼀": 624,
      "⼄": 625,
      "⼆": 626,
      "⼈": 627,
      "⼉": 628,
      "⼊": 629,
      "⼏": 630,
      "⼒": 631,
      "⼝": 632,
      "⼤": 633,
      "⼦": 634,
      "⼩": 635,
      "⼯": 636,
      "⼱": 637,
      "⼲": 638,
      "⼴": 639,
      "⼼": 640,
      "⽀": 641,
      "⽂": 642,
      "⽅": 643,
      "⽆": 644,
      "⽇": 645,
      "⽉": 646,
      "⽓": 647,
      "⽔": 648,
      "⽕": 649,
      "⽚": 650,
      "⽣": 651,
      "⽤": 652,
      "⽪": 653,
      "⽬": 654,
      "⽶": 655,
      "⽹": 656,
      "⽽": 657,
      "⽿": 658,
      "⾃": 659,
      "⾄": 660,
      "⾊": 661,
      "⾎": 662,
      "⾏": 663,
      "⾜": 664,
      "⾥": 665,
      "⾮": 666,
      "⾯": 667,
      "⾳": 668,
      "⾸": 669,
      "⾼": 670,
      "、": 671,
      "。": 672,
      "々": 673,
      "〇": 674,
      "〈": 675,
      "〉": 676,
      "《": 677,
      "》": 678,
      "「": 679,
      "」": 680,
      "『": 681,
      "』": 682,
      "【": 683,
      "】": 684,
      "〒": 685,
      "〔": 686,
      "〕": 687,
      "〖": 688,
      "〗": 689,
      "〜": 690,
      "〝": 691,
      "ぁ": 692,
      "あ": 693,
      "ぃ": 694,
      "い": 695,
      "う": 696,
      "ぇ": 697,
      "え": 698,
      "ぉ": 699,
      "お": 700,
      "か": 701,
      "が": 702,
      "き": 703,
      "ぎ": 704,
      "く": 705,
      "ぐ": 706,
      "け": 707,
      "げ": 708,
      "こ": 709,
      "ご": 710,
      "さ": 711,
      "ざ": 712,
      "し": 713,
      "じ": 714,
      "す": 715,
      "ず": 716,
      "せ": 717,
      "ぜ": 718,
      "そ": 719,
      "た": 720,
      "だ": 721,
      "ち": 722,
      "っ": 723,
      "つ": 724,
      "て": 725,
      "で": 726,
      "と": 727,
      "ど": 728,
      "な": 729,
      "に": 730,
      "ぬ": 731,
      "ね": 732,
      "の": 733,
      "は": 734,
      "ば": 735,
      "ひ": 736,
      "び": 737,
      "ぴ": 738,
      "ふ": 739,
      "ぶ": 740,
      "ぷ": 741,
      "へ": 742,
      "べ": 743,
      "ほ": 744,
      "ぼ": 745,
      "ぽ": 746,
      "ま": 747,
      "み": 748,
      "む": 749,
      "め": 750,
      "も": 751,
      "ゃ": 752,
      "や": 753,
      "ゅ": 754,
      "ゆ": 755,
      "ょ": 756,
      "よ": 757,
      "ら": 758,
      "り": 759,
      "る": 760,
      "れ": 761,
      "ろ": 762,
      "わ": 763,
      "を": 764,
      "ん": 765,
      "゙": 766,
      "゚": 767,
      "゜": 768,
      "ァ": 769,
      "ア": 770,
      "ィ": 771,
      "イ": 772,
      "ゥ": 773,
      "ウ": 774,
      "ェ": 775,
      "エ": 776,
      "ォ": 777,
      "オ": 778,
      "カ": 779,
      "ガ": 780,
      "キ": 781,
      "ギ": 782,
      "ク": 783,
      "グ": 784,
      "ケ": 785,
      "ゲ": 786,
      "コ": 787,
      "ゴ": 788,
      "サ": 789,
      "ザ": 790,
      "シ": 791,
      "ジ": 792,
      "ス": 793,
      "ズ": 794,
      "セ": 795,
      "ゼ": 796,
      "ソ": 797,
      "タ": 798,
      "ダ": 799,
      "チ": 800,
      "ッ": 801,
      "ツ": 802,
      "テ": 803,
      "デ": 804,
      "ト": 805,
      "ド": 806,
      "ナ": 807,
      "ニ": 808,
      "ヌ": 809,
      "ネ": 810,
      "ノ": 811,
      "ハ": 812,
      "バ": 813,
      "パ": 814,
      "ヒ": 815,
      "ビ": 816,
      "ピ": 817,
      "フ": 818,
      "ブ": 819,
      "プ": 820,
      "ヘ": 821,
      "ベ": 822,
      "ペ": 823,
      "ホ": 824,
      "ボ": 825,
      "ポ": 826,
      "マ": 827,
      "ミ": 828,
      "ム": 829,
      "メ": 830,
      "モ": 831,
      "ャ": 832,
      "ヤ": 833,
      "ュ": 834,
      "ユ": 835,
      "ョ": 836,
      "ヨ": 837,
      "ラ": 838,
      "リ": 839,
      "ル": 840,
      "レ": 841,
      "ロ": 842,
      "ワ": 843,
      "ヰ": 844,
      "ン": 845,
      "ヴ": 846,
      "・": 847,
      "ー": 848,
      "ヾ": 849,
      "ㄒ": 850,
      "ㅁ": 851,
      "ㅂ": 852,
      "㊙": 853,
      "㎜": 854,
      "㎝": 855,
      "㎡": 856,
      "㟙": 857,
      "㳕": 858,
      "䂳": 859,
      "䐑": 860,
      "䓬": 861,
      "䶮": 862,
      "一": 863,
      "丁": 864,
      "七": 865,
      "万": 866,
      "丈": 867,
      "三": 868,
      "上": 869,
      "下": 870,
      "不": 871,
      "与": 872,
      "丐": 873,
      "丑": 874,
      "专": 875,
      "且": 876,
      "丕": 877,
      "世": 878,
      "丘": 879,
      "丙": 880,
      "业": 881,
      "丛": 882,
      "东": 883,
      "丝": 884,
      "丞": 885,
      "丢": 886,
      "两": 887,
      "严": 888,
      "並": 889,
      "丧": 890,
      "丨": 891,
      "个": 892,
      "丫": 893,
      "中": 894,
      "丰": 895,
      "串": 896,
      "临": 897,
      "丶": 898,
      "丸": 899,
      "丹": 900,
      "为": 901,
      "主": 902,
      "丼": 903,
      "丽": 904,
      "举": 905,
      "乃": 906,
      "久": 907,
      "么": 908,
      "义": 909,
      "之": 910,
      "乌": 911,
      "乍": 912,
      "乎": 913,
      "乏": 914,
      "乐": 915,
      "乒": 916,
      "乓": 917,
      "乔": 918,
      "乖": 919,
      "乘": 920,
      "乙": 921,
      "九": 922,
      "乞": 923,
      "也": 924,
      "习": 925,
      "乡": 926,
      "书": 927,
      "买": 928,
      "乱": 929,
      "乳": 930,
      "乾": 931,
      "亂": 932,
      "了": 933,
      "予": 934,
      "争": 935,
      "事": 936,
      "二": 937,
      "亍": 938,
      "于": 939,
      "亏": 940,
      "云": 941,
      "互": 942,
      "五": 943,
      "井": 944,
      "亖": 945,
      "亘": 946,
      "亚": 947,
      "些": 948,
      "亜": 949,
      "亞": 950,
      "亟": 951,
      "亡": 952,
      "亢": 953,
      "交": 954,
      "亥": 955,
      "亦": 956,
      "产": 957,
      "亨": 958,
      "亩": 959,
      "享": 960,
      "京": 961,
      "亭": 962,
      "亮": 963,
      "亲": 964,
      "亳": 965,
      "亵": 966,
      "亶": 967,
      "人": 968,
      "亻": 969,
      "亿": 970,
      "什": 971,
      "仁": 972,
      "仃": 973,
      "仄": 974,
      "仅": 975,
      "仆": 976,
      "仇": 977,
      "今": 978,
      "介": 979,
      "仍": 980,
      "从": 981,
      "仑": 982,
      "仓": 983,
      "仔": 984,
      "仕": 985,
      "他": 986,
      "仗": 987,
      "付": 988,
      "仙": 989,
      "仝": 990,
      "仞": 991,
      "仡": 992,
      "代": 993,
      "令": 994,
      "以": 995,
      "仨": 996,
      "仪": 997,
      "们": 998,
      "仮": 999,
      "仰": 1000,
      "仲": 1001,
      "仵": 1002,
      "件": 1003,
      "价": 1004,
      "任": 1005,
      "份": 1006,
      "仿": 1007,
      "企": 1008,
      "伊": 1009,
      "伍": 1010,
      "伎": 1011,
      "伏": 1012,
      "伐": 1013,
      "休": 1014,
      "众": 1015,
      "优": 1016,
      "伙": 1017,
      "会": 1018,
      "伛": 1019,
      "伝": 1020,
      "伞": 1021,
      "伟": 1022,
      "传": 1023,
      "伤": 1024,
      "伥": 1025,
      "伦": 1026,
      "伪": 1027,
      "伫": 1028,
      "伯": 1029,
      "估": 1030,
      "伴": 1031,
      "伶": 1032,
      "伸": 1033,
      "伺": 1034,
      "似": 1035,
      "伽": 1036,
      "佃": 1037,
      "但": 1038,
      "佈": 1039,
      "位": 1040,
      "低": 1041,
      "住": 1042,
      "佐": 1043,
      "佑": 1044,
      "体": 1045,
      "佔": 1046,
      "何": 1047,
      "佗": 1048,
      "佘": 1049,
      "余": 1050,
      "佚": 1051,
      "佛": 1052,
      "作": 1053,
      "佝": 1054,
      "佞": 1055,
      "佟": 1056,
      "你": 1057,
      "佣": 1058,
      "佩": 1059,
      "佬": 1060,
      "佯": 1061,
      "佰": 1062,
      "佳": 1063,
      "佶": 1064,
      "佺": 1065,
      "佻": 1066,
      "佼": 1067,
      "使": 1068,
      "侃": 1069,
      "侄": 1070,
      "來": 1071,
      "侈": 1072,
      "侉": 1073,
      "例": 1074,
      "侍": 1075,
      "侏": 1076,
      "侑": 1077,
      "侗": 1078,
      "侘": 1079,
      "供": 1080,
      "依": 1081,
      "侠": 1082,
      "侣": 1083,
      "侥": 1084,
      "侦": 1085,
      "侧": 1086,
      "侨": 1087,
      "侩": 1088,
      "侪": 1089,
      "侬": 1090,
      "侮": 1091,
      "侯": 1092,
      "侵": 1093,
      "便": 1094,
      "係": 1095,
      "促": 1096,
      "俄": 1097,
      "俊": 1098,
      "俎": 1099,
      "俏": 1100,
      "俐": 1101,
      "俑": 1102,
      "俗": 1103,
      "俘": 1104,
      "俚": 1105,
      "保": 1106,
      "俞": 1107,
      "俟": 1108,
      "信": 1109,
      "俨": 1110,
      "俩": 1111,
      "俪": 1112,
      "俭": 1113,
      "修": 1114,
      "俯": 1115,
      "俱": 1116,
      "俸": 1117,
      "俺": 1118,
      "俾": 1119,
      "倆": 1120,
      "倉": 1121,
      "個": 1122,
      "倍": 1123,
      "倏": 1124,
      "們": 1125,
      "倒": 1126,
      "倔": 1127,
      "倘": 1128,
      "候": 1129,
      "倚": 1130,
      "倜": 1131,
      "借": 1132,
      "倡": 1133,
      "倦": 1134,
      "倨": 1135,
      "倩": 1136,
      "倪": 1137,
      "倬": 1138,
      "倭": 1139,
      "债": 1140,
      "值": 1141,
      "倾": 1142,
      "偃": 1143,
      "假": 1144,
      "偌": 1145,
      "偎": 1146,
      "偏": 1147,
      "偓": 1148,
      "偕": 1149,
      "做": 1150,
      "停": 1151,
      "健": 1152,
      "偲": 1153,
      "側": 1154,
      "偵": 1155,
      "偶": 1156,
      "偷": 1157,
      "偻": 1158,
      "偽": 1159,
      "偾": 1160,
      "偿": 1161,
      "傀": 1162,
      "傅": 1163,
      "傍": 1164,
      "備": 1165,
      "傢": 1166,
      "傣": 1167,
      "傥": 1168,
      "储": 1169,
      "傩": 1170,
      "催": 1171,
      "傲": 1172,
      "傳": 1173,
      "傷": 1174,
      "傻": 1175,
      "傾": 1176,
      "僅": 1177,
      "像": 1178,
      "僕": 1179,
      "僚": 1180,
      "僧": 1181,
      "僭": 1182,
      "僵": 1183,
      "價": 1184,
      "僻": 1185,
      "儀": 1186,
      "儆": 1187,
      "儒": 1188,
      "儘": 1189,
      "儡": 1190,
      "優": 1191,
      "儼": 1192,
      "儿": 1193,
      "兀": 1194,
      "允": 1195,
      "元": 1196,
      "兄": 1197,
      "充": 1198,
      "兆": 1199,
      "先": 1200,
      "光": 1201,
      "克": 1202,
      "兌": 1203,
      "免": 1204,
      "兑": 1205,
      "兒": 1206,
      "兔": 1207,
      "兕": 1208,
      "党": 1209,
      "兜": 1210,
      "兢": 1211,
      "入": 1212,
      "內": 1213,
      "全": 1214,
      "兩": 1215,
      "八": 1216,
      "公": 1217,
      "六": 1218,
      "兮": 1219,
      "兰": 1220,
      "共": 1221,
      "关": 1222,
      "兴": 1223,
      "兵": 1224,
      "其": 1225,
      "具": 1226,
      "典": 1227,
      "兹": 1228,
      "养": 1229,
      "兼": 1230,
      "兽": 1231,
      "冀": 1232,
      "内": 1233,
      "円": 1234,
      "冇": 1235,
      "冈": 1236,
      "冉": 1237,
      "冊": 1238,
      "册": 1239,
      "再": 1240,
      "冑": 1241,
      "冒": 1242,
      "冕": 1243,
      "冗": 1244,
      "写": 1245,
      "军": 1246,
      "农": 1247,
      "冠": 1248,
      "冢": 1249,
      "冤": 1250,
      "冥": 1251,
      "冬": 1252,
      "冯": 1253,
      "冰": 1254,
      "冲": 1255,
      "决": 1256,
      "冴": 1257,
      "况": 1258,
      "冶": 1259,
      "冷": 1260,
      "冻": 1261,
      "冽": 1262,
      "净": 1263,
      "凃": 1264,
      "凄": 1265,
      "准": 1266,
      "凉": 1267,
      "凋": 1268,
      "凌": 1269,
      "减": 1270,
      "凑": 1271,
      "凛": 1272,
      "凜": 1273,
      "凝": 1274,
      "几": 1275,
      "凡": 1276,
      "凤": 1277,
      "処": 1278,
      "凪": 1279,
      "凫": 1280,
      "凭": 1281,
      "凯": 1282,
      "凰": 1283,
      "凱": 1284,
      "凳": 1285,
      "凶": 1286,
      "凸": 1287,
      "凹": 1288,
      "出": 1289,
      "击": 1290,
      "凼": 1291,
      "函": 1292,
      "凿": 1293,
      "刀": 1294,
      "刁": 1295,
      "刃": 1296,
      "分": 1297,
      "切": 1298,
      "刊": 1299,
      "刍": 1300,
      "刎": 1301,
      "刑": 1302,
      "划": 1303,
      "刖": 1304,
      "列": 1305,
      "刘": 1306,
      "则": 1307,
      "刚": 1308,
      "创": 1309,
      "初": 1310,
      "删": 1311,
      "判": 1312,
      "別": 1313,
      "刨": 1314,
      "利": 1315,
      "别": 1316,
      "刮": 1317,
      "到": 1318,
      "制": 1319,
      "刷": 1320,
      "券": 1321,
      "刹": 1322,
      "刺": 1323,
      "刻": 1324,
      "刽": 1325,
      "刿": 1326,
      "剁": 1327,
      "剂": 1328,
      "剃": 1329,
      "則": 1330,
      "剉": 1331,
      "削": 1332,
      "剋": 1333,
      "剌": 1334,
      "前": 1335,
      "剐": 1336,
      "剑": 1337,
      "剔": 1338,
      "剖": 1339,
      "剛": 1340,
      "剜": 1341,
      "剣": 1342,
      "剥": 1343,
      "剧": 1344,
      "剩": 1345,
      "剪": 1346,
      "副": 1347,
      "割": 1348,
      "創": 1349,
      "剽": 1350,
      "剿": 1351,
      "劃": 1352,
      "劇": 1353,
      "劈": 1354,
      "劍": 1355,
      "力": 1356,
      "劝": 1357,
      "办": 1358,
      "功": 1359,
      "加": 1360,
      "务": 1361,
      "劢": 1362,
      "劣": 1363,
      "动": 1364,
      "助": 1365,
      "努": 1366,
      "劫": 1367,
      "励": 1368,
      "劲": 1369,
      "劳": 1370,
      "労": 1371,
      "劼": 1372,
      "劾": 1373,
      "势": 1374,
      "勃": 1375,
      "勇": 1376,
      "勉": 1377,
      "勋": 1378,
      "勒": 1379,
      "動": 1380,
      "勖": 1381,
      "勘": 1382,
      "務": 1383,
      "勛": 1384,
      "勝": 1385,
      "勞": 1386,
      "募": 1387,
      "勢": 1388,
      "勣": 1389,
      "勤": 1390,
      "勰": 1391,
      "勳": 1392,
      "勺": 1393,
      "勾": 1394,
      "勿": 1395,
      "匀": 1396,
      "包": 1397,
      "匆": 1398,
      "匈": 1399,
      "匍": 1400,
      "匐": 1401,
      "匕": 1402,
      "化": 1403,
      "北": 1404,
      "匙": 1405,
      "匝": 1406,
      "匠": 1407,
      "匡": 1408,
      "匣": 1409,
      "匪": 1410,
      "匮": 1411,
      "匹": 1412,
      "区": 1413,
      "医": 1414,
      "匾": 1415,
      "匿": 1416,
      "十": 1417,
      "千": 1418,
      "升": 1419,
      "午": 1420,
      "卉": 1421,
      "半": 1422,
      "卍": 1423,
      "华": 1424,
      "协": 1425,
      "卑": 1426,
      "卒": 1427,
      "卓": 1428,
      "協": 1429,
      "单": 1430,
      "卖": 1431,
      "南": 1432,
      "博": 1433,
      "卜": 1434,
      "卞": 1435,
      "卟": 1436,
      "占": 1437,
      "卡": 1438,
      "卢": 1439,
      "卤": 1440,
      "卦": 1441,
      "卧": 1442,
      "卫": 1443,
      "卮": 1444,
      "卯": 1445,
      "印": 1446,
      "危": 1447,
      "即": 1448,
      "却": 1449,
      "卵": 1450,
      "卷": 1451,
      "卸": 1452,
      "卻": 1453,
      "卿": 1454,
      "厂": 1455,
      "厄": 1456,
      "厅": 1457,
      "历": 1458,
      "厉": 1459,
      "压": 1460,
      "厌": 1461,
      "厕": 1462,
      "厘": 1463,
      "厚": 1464,
      "厝": 1465,
      "原": 1466,
      "厢": 1467,
      "厥": 1468,
      "厦": 1469,
      "厨": 1470,
      "厩": 1471,
      "厪": 1472,
      "厮": 1473,
      "厲": 1474,
      "去": 1475,
      "县": 1476,
      "叁": 1477,
      "参": 1478,
      "又": 1479,
      "叉": 1480,
      "及": 1481,
      "友": 1482,
      "双": 1483,
      "反": 1484,
      "发": 1485,
      "叒": 1486,
      "叔": 1487,
      "叕": 1488,
      "取": 1489,
      "受": 1490,
      "变": 1491,
      "叙": 1492,
      "叛": 1493,
      "叟": 1494,
      "叠": 1495,
      "叡": 1496,
      "口": 1497,
      "古": 1498,
      "句": 1499,
      "另": 1500,
      "叨": 1501,
      "叩": 1502,
      "只": 1503,
      "叫": 1504,
      "召": 1505,
      "叭": 1506,
      "叮": 1507,
      "可": 1508,
      "台": 1509,
      "叱": 1510,
      "史": 1511,
      "右": 1512,
      "叵": 1513,
      "叶": 1514,
      "号": 1515,
      "司": 1516,
      "叹": 1517,
      "叻": 1518,
      "叼": 1519,
      "叽": 1520,
      "吁": 1521,
      "吃": 1522,
      "各": 1523,
      "吆": 1524,
      "合": 1525,
      "吉": 1526,
      "吊": 1527,
      "同": 1528,
      "名": 1529,
      "后": 1530,
      "吏": 1531,
      "吐": 1532,
      "向": 1533,
      "吒": 1534,
      "吓": 1535,
      "吕": 1536,
      "吖": 1537,
      "吗": 1538,
      "君": 1539,
      "吝": 1540,
      "吞": 1541,
      "吟": 1542,
      "吠": 1543,
      "吡": 1544,
      "否": 1545,
      "吧": 1546,
      "吨": 1547,
      "吩": 1548,
      "含": 1549,
      "听": 1550,
      "吭": 1551,
      "吮": 1552,
      "启": 1553,
      "吱": 1554,
      "吲": 1555,
      "吴": 1556,
      "吵": 1557,
      "吸": 1558,
      "吹": 1559,
      "吻": 1560,
      "吼": 1561,
      "吾": 1562,
      "呀": 1563,
      "呃": 1564,
      "呆": 1565,
      "呈": 1566,
      "告": 1567,
      "呋": 1568,
      "呐": 1569,
      "呓": 1570,
      "呕": 1571,
      "呗": 1572,
      "员": 1573,
      "呛": 1574,
      "呜": 1575,
      "呢": 1576,
      "呤": 1577,
      "呦": 1578,
      "周": 1579,
      "呪": 1580,
      "呯": 1581,
      "呱": 1582,
      "呲": 1583,
      "味": 1584,
      "呵": 1585,
      "呷": 1586,
      "呸": 1587,
      "呻": 1588,
      "呼": 1589,
      "命": 1590,
      "咀": 1591,
      "咂": 1592,
      "咄": 1593,
      "咆": 1594,
      "咋": 1595,
      "和": 1596,
      "咎": 1597,
      "咏": 1598,
      "咐": 1599,
      "咒": 1600,
      "咔": 1601,
      "咕": 1602,
      "咖": 1603,
      "咘": 1604,
      "咙": 1605,
      "咚": 1606,
      "咛": 1607,
      "咝": 1608,
      "咣": 1609,
      "咤": 1610,
      "咦": 1611,
      "咧": 1612,
      "咨": 1613,
      "咩": 1614,
      "咪": 1615,
      "咫": 1616,
      "咬": 1617,
      "咯": 1618,
      "咱": 1619,
      "咲": 1620,
      "咳": 1621,
      "咸": 1622,
      "咻": 1623,
      "咽": 1624,
      "咾": 1625,
      "咿": 1626,
      "哀": 1627,
      "品": 1628,
      "哂": 1629,
      "哄": 1630,
      "哆": 1631,
      "哇": 1632,
      "哈": 1633,
      "哉": 1634,
      "哌": 1635,
      "响": 1636,
      "哎": 1637,
      "哐": 1638,
      "哑": 1639,
      "哒": 1640,
      "哓": 1641,
      "哔": 1642,
      "哕": 1643,
      "哗": 1644,
      "哚": 1645,
      "哝": 1646,
      "哟": 1647,
      "員": 1648,
      "哥": 1649,
      "哦": 1650,
      "哧": 1651,
      "哨": 1652,
      "哩": 1653,
      "哪": 1654,
      "哭": 1655,
      "哮": 1656,
      "哯": 1657,
      "哲": 1658,
      "哺": 1659,
      "哼": 1660,
      "哽": 1661,
      "唄": 1662,
      "唆": 1663,
      "唇": 1664,
      "唉": 1665,
      "唏": 1666,
      "唐": 1667,
      "唑": 1668,
      "唔": 1669,
      "唠": 1670,
      "唢": 1671,
      "唤": 1672,
      "唧": 1673,
      "唬": 1674,
      "售": 1675,
      "唯": 1676,
      "唱": 1677,
      "唸": 1678,
      "唾": 1679,
      "啃": 1680,
      "啄": 1681,
      "商": 1682,
      "啉": 1683,
      "啊": 1684,
      "問": 1685,
      "啓": 1686,
      "啕": 1687,
      "啖": 1688,
      "啜": 1689,
      "啡": 1690,
      "啤": 1691,
      "啥": 1692,
      "啦": 1693,
      "啧": 1694,
      "啪": 1695,
      "啫": 1696,
      "啬": 1697,
      "啮": 1698,
      "啰": 1699,
      "啵": 1700,
      "啶": 1701,
      "啸": 1702,
      "啼": 1703,
      "啾": 1704,
      "喀": 1705,
      "喂": 1706,
      "喃": 1707,
      "善": 1708,
      "喆": 1709,
      "喇": 1710,
      "喈": 1711,
      "喉": 1712,
      "喊": 1713,
      "喋": 1714,
      "喏": 1715,
      "喔": 1716,
      "喘": 1717,
      "喙": 1718,
      "喚": 1719,
      "喜": 1720,
      "喝": 1721,
      "喟": 1722,
      "喧": 1723,
      "喪": 1724,
      "單": 1725,
      "喰": 1726,
      "喱": 1727,
      "喳": 1728,
      "喵": 1729,
      "喷": 1730,
      "喹": 1731,
      "喻": 1732,
      "喽": 1733,
      "嗄": 1734,
      "嗅": 1735,
      "嗎": 1736,
      "嗐": 1737,
      "嗑": 1738,
      "嗒": 1739,
      "嗓": 1740,
      "嗔": 1741,
      "嗖": 1742,
      "嗜": 1743,
      "嗝": 1744,
      "嗟": 1745,
      "嗡": 1746,
      "嗣": 1747,
      "嗤": 1748,
      "嗦": 1749,
      "嗨": 1750,
      "嗪": 1751,
      "嗯": 1752,
      "嗲": 1753,
      "嗳": 1754,
      "嗷": 1755,
      "嗽": 1756,
      "嘀": 1757,
      "嘆": 1758,
      "嘈": 1759,
      "嘉": 1760,
      "嘌": 1761,
      "嘎": 1762,
      "嘏": 1763,
      "嘗": 1764,
      "嘘": 1765,
      "嘚": 1766,
      "嘛": 1767,
      "嘞": 1768,
      "嘟": 1769,
      "嘣": 1770,
      "嘤": 1771,
      "嘧": 1772,
      "嘩": 1773,
      "嘬": 1774,
      "嘭": 1775,
      "嘱": 1776,
      "嘲": 1777,
      "嘴": 1778,
      "嘶": 1779,
      "嘹": 1780,
      "嘻": 1781,
      "嘿": 1782,
      "噁": 1783,
      "噌": 1784,
      "噎": 1785,
      "噔": 1786,
      "噗": 1787,
      "噛": 1788,
      "噜": 1789,
      "噢": 1790,
      "噤": 1791,
      "器": 1792,
      "噩": 1793,
      "噪": 1794,
      "噬": 1795,
      "噱": 1796,
      "噶": 1797,
      "噺": 1798,
      "噻": 1799,
      "噼": 1800,
      "嚎": 1801,
      "嚏": 1802,
      "嚐": 1803,
      "嚓": 1804,
      "嚣": 1805,
      "嚯": 1806,
      "嚷": 1807,
      "嚼": 1808,
      "囊": 1809,
      "囔": 1810,
      "囗": 1811,
      "囚": 1812,
      "四": 1813,
      "囝": 1814,
      "回": 1815,
      "囟": 1816,
      "因": 1817,
      "团": 1818,
      "団": 1819,
      "囤": 1820,
      "囧": 1821,
      "囫": 1822,
      "园": 1823,
      "困": 1824,
      "囱": 1825,
      "围": 1826,
      "囵": 1827,
      "固": 1828,
      "国": 1829,
      "图": 1830,
      "囿": 1831,
      "圃": 1832,
      "圆": 1833,
      "圈": 1834,
      "國": 1835,
      "園": 1836,
      "圓": 1837,
      "圖": 1838,
      "團": 1839,
      "圜": 1840,
      "土": 1841,
      "圣": 1842,
      "在": 1843,
      "圩": 1844,
      "圫": 1845,
      "圭": 1846,
      "圮": 1847,
      "地": 1848,
      "圳": 1849,
      "场": 1850,
      "圻": 1851,
      "圾": 1852,
      "址": 1853,
      "坂": 1854,
      "均": 1855,
      "坊": 1856,
      "坍": 1857,
      "坎": 1858,
      "坏": 1859,
      "坐": 1860,
      "坑": 1861,
      "块": 1862,
      "坚": 1863,
      "坛": 1864,
      "坝": 1865,
      "坞": 1866,
      "坟": 1867,
      "坠": 1868,
      "坡": 1869,
      "坤": 1870,
      "坦": 1871,
      "坨": 1872,
      "坪": 1873,
      "坯": 1874,
      "坷": 1875,
      "垂": 1876,
      "垃": 1877,
      "垄": 1878,
      "型": 1879,
      "垒": 1880,
      "垚": 1881,
      "垛": 1882,
      "垠": 1883,
      "垢": 1884,
      "垣": 1885,
      "垦": 1886,
      "垫": 1887,
      "垭": 1888,
      "垮": 1889,
      "埂": 1890,
      "埃": 1891,
      "埋": 1892,
      "城": 1893,
      "埒": 1894,
      "埔": 1895,
      "埙": 1896,
      "埜": 1897,
      "域": 1898,
      "埠": 1899,
      "執": 1900,
      "培": 1901,
      "基": 1902,
      "埼": 1903,
      "堀": 1904,
      "堂": 1905,
      "堃": 1906,
      "堅": 1907,
      "堆": 1908,
      "堇": 1909,
      "堉": 1910,
      "堑": 1911,
      "堕": 1912,
      "堡": 1913,
      "堤": 1914,
      "堪": 1915,
      "堰": 1916,
      "報": 1917,
      "場": 1918,
      "堵": 1919,
      "堺": 1920,
      "塀": 1921,
      "塌": 1922,
      "塑": 1923,
      "塔": 1924,
      "塘": 1925,
      "塚": 1926,
      "塞": 1927,
      "塨": 1928,
      "填": 1929,
      "塬": 1930,
      "塽": 1931,
      "塾": 1932,
      "墀": 1933,
      "境": 1934,
      "墅": 1935,
      "墓": 1936,
      "増": 1937,
      "墙": 1938,
      "增": 1939,
      "墟": 1940,
      "墨": 1941,
      "墩": 1942,
      "墻": 1943,
      "壁": 1944,
      "壅": 1945,
      "壊": 1946,
      "壐": 1947,
      "壑": 1948,
      "壕": 1949,
      "壞": 1950,
      "壤": 1951,
      "士": 1952,
      "壬": 1953,
      "壮": 1954,
      "壯": 1955,
      "声": 1956,
      "壳": 1957,
      "壶": 1958,
      "壹": 1959,
      "处": 1960,
      "备": 1961,
      "変": 1962,
      "复": 1963,
      "夏": 1964,
      "夑": 1965,
      "夔": 1966,
      "夕": 1967,
      "外": 1968,
      "夙": 1969,
      "多": 1970,
      "夜": 1971,
      "够": 1972,
      "夠": 1973,
      "夥": 1974,
      "大": 1975,
      "天": 1976,
      "太": 1977,
      "夫": 1978,
      "夭": 1979,
      "央": 1980,
      "夯": 1981,
      "失": 1982,
      "头": 1983,
      "夷": 1984,
      "夸": 1985,
      "夹": 1986,
      "夺": 1987,
      "奁": 1988,
      "奂": 1989,
      "奄": 1990,
      "奇": 1991,
      "奈": 1992,
      "奉": 1993,
      "奋": 1994,
      "奎": 1995,
      "奏": 1996,
      "契": 1997,
      "奔": 1998,
      "奕": 1999,
      "奖": 2000,
      "套": 2001,
      "奘": 2002,
      "奚": 2003,
      "奠": 2004,
      "奡": 2005,
      "奢": 2006,
      "奥": 2007,
      "奧": 2008,
      "奭": 2009,
      "女": 2010,
      "奴": 2011,
      "奶": 2012,
      "奸": 2013,
      "她": 2014,
      "好": 2015,
      "妁": 2016,
      "如": 2017,
      "妃": 2018,
      "妄": 2019,
      "妆": 2020,
      "妇": 2021,
      "妈": 2022,
      "妊": 2023,
      "妍": 2024,
      "妒": 2025,
      "妓": 2026,
      "妖": 2027,
      "妙": 2028,
      "妞": 2029,
      "妤": 2030,
      "妥": 2031,
      "妨": 2032,
      "妩": 2033,
      "妪": 2034,
      "妮": 2035,
      "妯": 2036,
      "妲": 2037,
      "妳": 2038,
      "妹": 2039,
      "妻": 2040,
      "妾": 2041,
      "姆": 2042,
      "姉": 2043,
      "姊": 2044,
      "始": 2045,
      "姐": 2046,
      "姑": 2047,
      "姒": 2048,
      "姓": 2049,
      "委": 2050,
      "姗": 2051,
      "姚": 2052,
      "姜": 2053,
      "姝": 2054,
      "姣": 2055,
      "姥": 2056,
      "姨": 2057,
      "姪": 2058,
      "姫": 2059,
      "姬": 2060,
      "姻": 2061,
      "姽": 2062,
      "姿": 2063,
      "威": 2064,
      "娃": 2065,
      "娄": 2066,
      "娅": 2067,
      "娆": 2068,
      "娇": 2069,
      "娌": 2070,
      "娑": 2071,
      "娓": 2072,
      "娘": 2073,
      "娜": 2074,
      "娟": 2075,
      "娠": 2076,
      "娣": 2077,
      "娥": 2078,
      "娩": 2079,
      "娯": 2080,
      "娱": 2081,
      "娲": 2082,
      "娴": 2083,
      "娶": 2084,
      "娼": 2085,
      "婀": 2086,
      "婆": 2087,
      "婉": 2088,
      "婊": 2089,
      "婓": 2090,
      "婕": 2091,
      "婚": 2092,
      "婢": 2093,
      "婧": 2094,
      "婪": 2095,
      "婳": 2096,
      "婴": 2097,
      "婵": 2098,
      "婶": 2099,
      "婷": 2100,
      "婺": 2101,
      "婿": 2102,
      "媒": 2103,
      "媚": 2104,
      "媛": 2105,
      "媞": 2106,
      "媲": 2107,
      "媳": 2108,
      "媽": 2109,
      "媾": 2110,
      "嫁": 2111,
      "嫂": 2112,
      "嫉": 2113,
      "嫌": 2114,
      "嫔": 2115,
      "嫖": 2116,
      "嫡": 2117,
      "嫣": 2118,
      "嫦": 2119,
      "嫩": 2120,
      "嫱": 2121,
      "嬉": 2122,
      "嬗": 2123,
      "嬛": 2124,
      "嬢": 2125,
      "嬴": 2126,
      "嬷": 2127,
      "嬾": 2128,
      "嬿": 2129,
      "孀": 2130,
      "孃": 2131,
      "子": 2132,
      "孑": 2133,
      "孔": 2134,
      "孕": 2135,
      "字": 2136,
      "存": 2137,
      "孙": 2138,
      "孚": 2139,
      "孜": 2140,
      "孝": 2141,
      "孟": 2142,
      "孢": 2143,
      "季": 2144,
      "孤": 2145,
      "学": 2146,
      "孩": 2147,
      "孪": 2148,
      "孬": 2149,
      "孰": 2150,
      "孱": 2151,
      "孳": 2152,
      "孵": 2153,
      "學": 2154,
      "孺": 2155,
      "孽": 2156,
      "宁": 2157,
      "它": 2158,
      "宅": 2159,
      "宇": 2160,
      "守": 2161,
      "安": 2162,
      "宋": 2163,
      "完": 2164,
      "宏": 2165,
      "宕": 2166,
      "宗": 2167,
      "官": 2168,
      "宙": 2169,
      "定": 2170,
      "宛": 2171,
      "宜": 2172,
      "宝": 2173,
      "实": 2174,
      "実": 2175,
      "宠": 2176,
      "审": 2177,
      "客": 2178,
      "宣": 2179,
      "室": 2180,
      "宥": 2181,
      "宦": 2182,
      "宪": 2183,
      "宫": 2184,
      "宮": 2185,
      "宰": 2186,
      "害": 2187,
      "宴": 2188,
      "宵": 2189,
      "家": 2190,
      "宸": 2191,
      "容": 2192,
      "宽": 2193,
      "宾": 2194,
      "宿": 2195,
      "寂": 2196,
      "寄": 2197,
      "寅": 2198,
      "密": 2199,
      "寇": 2200,
      "富": 2201,
      "寐": 2202,
      "寒": 2203,
      "寓": 2204,
      "寔": 2205,
      "寝": 2206,
      "寞": 2207,
      "察": 2208,
      "寡": 2209,
      "寥": 2210,
      "實": 2211,
      "寧": 2212,
      "寨": 2213,
      "審": 2214,
      "寫": 2215,
      "寮": 2216,
      "寰": 2217,
      "寸": 2218,
      "对": 2219,
      "寺": 2220,
      "寻": 2221,
      "导": 2222,
      "対": 2223,
      "寿": 2224,
      "封": 2225,
      "射": 2226,
      "将": 2227,
      "將": 2228,
      "專": 2229,
      "尉": 2230,
      "尊": 2231,
      "對": 2232,
      "導": 2233,
      "小": 2234,
      "少": 2235,
      "尔": 2236,
      "尕": 2237,
      "尖": 2238,
      "尘": 2239,
      "尚": 2240,
      "尜": 2241,
      "尝": 2242,
      "尢": 2243,
      "尤": 2244,
      "尧": 2245,
      "尬": 2246,
      "就": 2247,
      "尴": 2248,
      "尸": 2249,
      "尹": 2250,
      "尺": 2251,
      "尼": 2252,
      "尽": 2253,
      "尾": 2254,
      "尿": 2255,
      "局": 2256,
      "屁": 2257,
      "层": 2258,
      "居": 2259,
      "屈": 2260,
      "屉": 2261,
      "届": 2262,
      "屋": 2263,
      "屌": 2264,
      "屍": 2265,
      "屎": 2266,
      "屏": 2267,
      "屐": 2268,
      "屑": 2269,
      "屓": 2270,
      "展": 2271,
      "属": 2272,
      "屠": 2273,
      "屡": 2274,
      "層": 2275,
      "履": 2276,
      "屦": 2277,
      "屬": 2278,
      "屯": 2279,
      "山": 2280,
      "屹": 2281,
      "屿": 2282,
      "岀": 2283,
      "岁": 2284,
      "岂": 2285,
      "岌": 2286,
      "岐": 2287,
      "岑": 2288,
      "岔": 2289,
      "岖": 2290,
      "岗": 2291,
      "岙": 2292,
      "岚": 2293,
      "岛": 2294,
      "岡": 2295,
      "岩": 2296,
      "岬": 2297,
      "岭": 2298,
      "岱": 2299,
      "岳": 2300,
      "岷": 2301,
      "岸": 2302,
      "岹": 2303,
      "岿": 2304,
      "峁": 2305,
      "峒": 2306,
      "峙": 2307,
      "峠": 2308,
      "峡": 2309,
      "峤": 2310,
      "峥": 2311,
      "峦": 2312,
      "峨": 2313,
      "峪": 2314,
      "峭": 2315,
      "峰": 2316,
      "島": 2317,
      "峻": 2318,
      "崁": 2319,
      "崂": 2320,
      "崇": 2321,
      "崎": 2322,
      "崔": 2323,
      "崖": 2324,
      "崙": 2325,
      "崚": 2326,
      "崛": 2327,
      "崧": 2328,
      "崩": 2329,
      "崭": 2330,
      "崴": 2331,
      "崽": 2332,
      "嵇": 2333,
      "嵌": 2334,
      "嵐": 2335,
      "嵘": 2336,
      "嵛": 2337,
      "嵩": 2338,
      "嵬": 2339,
      "嵴": 2340,
      "嶂": 2341,
      "嶋": 2342,
      "嶷": 2343,
      "嶺": 2344,
      "巅": 2345,
      "巍": 2346,
      "川": 2347,
      "州": 2348,
      "巡": 2349,
      "巢": 2350,
      "巣": 2351,
      "工": 2352,
      "左": 2353,
      "巧": 2354,
      "巨": 2355,
      "巩": 2356,
      "巫": 2357,
      "差": 2358,
      "巯": 2359,
      "己": 2360,
      "已": 2361,
      "巳": 2362,
      "巴": 2363,
      "巷": 2364,
      "巽": 2365,
      "巾": 2366,
      "币": 2367,
      "市": 2368,
      "布": 2369,
      "帅": 2370,
      "帆": 2371,
      "师": 2372,
      "希": 2373,
      "帐": 2374,
      "帑": 2375,
      "帕": 2376,
      "帖": 2377,
      "帘": 2378,
      "帙": 2379,
      "帚": 2380,
      "帛": 2381,
      "帜": 2382,
      "帝": 2383,
      "带": 2384,
      "帧": 2385,
      "師": 2386,
      "席": 2387,
      "帮": 2388,
      "帳": 2389,
      "帶": 2390,
      "帷": 2391,
      "常": 2392,
      "帼": 2393,
      "帽": 2394,
      "幂": 2395,
      "幄": 2396,
      "幅": 2397,
      "幌": 2398,
      "幕": 2399,
      "幡": 2400,
      "幢": 2401,
      "幫": 2402,
      "干": 2403,
      "平": 2404,
      "年": 2405,
      "并": 2406,
      "幸": 2407,
      "幺": 2408,
      "幻": 2409,
      "幼": 2410,
      "幽": 2411,
      "幾": 2412,
      "广": 2413,
      "広": 2414,
      "庄": 2415,
      "庆": 2416,
      "庇": 2417,
      "床": 2418,
      "序": 2419,
      "庐": 2420,
      "庑": 2421,
      "库": 2422,
      "应": 2423,
      "底": 2424,
      "庖": 2425,
      "店": 2426,
      "庙": 2427,
      "庚": 2428,
      "府": 2429,
      "庞": 2430,
      "废": 2431,
      "度": 2432,
      "座": 2433,
      "庭": 2434,
      "庵": 2435,
      "庶": 2436,
      "康": 2437,
      "庸": 2438,
      "庾": 2439,
      "廃": 2440,
      "廉": 2441,
      "廊": 2442,
      "廋": 2443,
      "廌": 2444,
      "廑": 2445,
      "廓": 2446,
      "廖": 2447,
      "廛": 2448,
      "廣": 2449,
      "廪": 2450,
      "廳": 2451,
      "延": 2452,
      "廷": 2453,
      "建": 2454,
      "廻": 2455,
      "廿": 2456,
      "开": 2457,
      "弁": 2458,
      "异": 2459,
      "弃": 2460,
      "弄": 2461,
      "弇": 2462,
      "弈": 2463,
      "弊": 2464,
      "弋": 2465,
      "式": 2466,
      "弑": 2467,
      "弓": 2468,
      "引": 2469,
      "弗": 2470,
      "弘": 2471,
      "弛": 2472,
      "弟": 2473,
      "张": 2474,
      "弢": 2475,
      "弥": 2476,
      "弦": 2477,
      "弧": 2478,
      "弩": 2479,
      "弭": 2480,
      "弯": 2481,
      "弱": 2482,
      "張": 2483,
      "強": 2484,
      "弹": 2485,
      "强": 2486,
      "弼": 2487,
      "彀": 2488,
      "彄": 2489,
      "彊": 2490,
      "归": 2491,
      "当": 2492,
      "录": 2493,
      "彗": 2494,
      "彘": 2495,
      "彝": 2496,
      "形": 2497,
      "彤": 2498,
      "彦": 2499,
      "彧": 2500,
      "彩": 2501,
      "彪": 2502,
      "彬": 2503,
      "彭": 2504,
      "彰": 2505,
      "影": 2506,
      "彳": 2507,
      "彷": 2508,
      "役": 2509,
      "彻": 2510,
      "彼": 2511,
      "彿": 2512,
      "往": 2513,
      "征": 2514,
      "徂": 2515,
      "径": 2516,
      "待": 2517,
      "徇": 2518,
      "很": 2519,
      "徉": 2520,
      "徊": 2521,
      "律": 2522,
      "後": 2523,
      "徐": 2524,
      "徒": 2525,
      "従": 2526,
      "徕": 2527,
      "得": 2528,
      "徘": 2529,
      "徙": 2530,
      "徜": 2531,
      "從": 2532,
      "御": 2533,
      "徨": 2534,
      "復": 2535,
      "循": 2536,
      "徭": 2537,
      "微": 2538,
      "徳": 2539,
      "徵": 2540,
      "德": 2541,
      "徹": 2542,
      "徼": 2543,
      "徽": 2544,
      "心": 2545,
      "必": 2546,
      "忆": 2547,
      "忌": 2548,
      "忍": 2549,
      "忏": 2550,
      "忐": 2551,
      "忑": 2552,
      "忒": 2553,
      "志": 2554,
      "忘": 2555,
      "忙": 2556,
      "忝": 2557,
      "忠": 2558,
      "忡": 2559,
      "忤": 2560,
      "忧": 2561,
      "快": 2562,
      "忱": 2563,
      "念": 2564,
      "忻": 2565,
      "忽": 2566,
      "忾": 2567,
      "忿": 2568,
      "怀": 2569,
      "态": 2570,
      "怂": 2571,
      "怅": 2572,
      "怆": 2573,
      "怎": 2574,
      "怏": 2575,
      "怒": 2576,
      "怔": 2577,
      "怕": 2578,
      "怖": 2579,
      "怜": 2580,
      "思": 2581,
      "怠": 2582,
      "怡": 2583,
      "急": 2584,
      "怦": 2585,
      "性": 2586,
      "怨": 2587,
      "怪": 2588,
      "怯": 2589,
      "怵": 2590,
      "总": 2591,
      "怼": 2592,
      "恂": 2593,
      "恃": 2594,
      "恆": 2595,
      "恋": 2596,
      "恍": 2597,
      "恐": 2598,
      "恒": 2599,
      "恕": 2600,
      "恙": 2601,
      "恢": 2602,
      "恣": 2603,
      "恤": 2604,
      "恨": 2605,
      "恩": 2606,
      "恪": 2607,
      "恬": 2608,
      "恭": 2609,
      "息": 2610,
      "恰": 2611,
      "恳": 2612,
      "恵": 2613,
      "恶": 2614,
      "恸": 2615,
      "恺": 2616,
      "恻": 2617,
      "恼": 2618,
      "恽": 2619,
      "恿": 2620,
      "悄": 2621,
      "悅": 2622,
      "悉": 2623,
      "悌": 2624,
      "悍": 2625,
      "悔": 2626,
      "悖": 2627,
      "悚": 2628,
      "悟": 2629,
      "悠": 2630,
      "患": 2631,
      "悦": 2632,
      "您": 2633,
      "悪": 2634,
      "悬": 2635,
      "悯": 2636,
      "悱": 2637,
      "悲": 2638,
      "悴": 2639,
      "悸": 2640,
      "悻": 2641,
      "悼": 2642,
      "情": 2643,
      "惆": 2644,
      "惊": 2645,
      "惋": 2646,
      "惑": 2647,
      "惕": 2648,
      "惘": 2649,
      "惚": 2650,
      "惜": 2651,
      "惟": 2652,
      "惠": 2653,
      "惡": 2654,
      "惣": 2655,
      "惦": 2656,
      "惧": 2657,
      "惨": 2658,
      "惩": 2659,
      "惫": 2660,
      "惬": 2661,
      "惭": 2662,
      "惮": 2663,
      "惯": 2664,
      "惰": 2665,
      "惱": 2666,
      "想": 2667,
      "惴": 2668,
      "惶": 2669,
      "惹": 2670,
      "惺": 2671,
      "愁": 2672,
      "愈": 2673,
      "愉": 2674,
      "愎": 2675,
      "意": 2676,
      "愕": 2677,
      "愚": 2678,
      "愛": 2679,
      "感": 2680,
      "愣": 2681,
      "愤": 2682,
      "愦": 2683,
      "愧": 2684,
      "愫": 2685,
      "愿": 2686,
      "慈": 2687,
      "態": 2688,
      "慌": 2689,
      "慎": 2690,
      "慑": 2691,
      "慕": 2692,
      "慘": 2693,
      "慢": 2694,
      "慧": 2695,
      "慨": 2696,
      "慮": 2697,
      "慰": 2698,
      "慵": 2699,
      "慶": 2700,
      "慷": 2701,
      "慼": 2702,
      "慾": 2703,
      "憂": 2704,
      "憋": 2705,
      "憎": 2706,
      "憐": 2707,
      "憑": 2708,
      "憔": 2709,
      "憧": 2710,
      "憨": 2711,
      "憩": 2712,
      "憬": 2713,
      "憲": 2714,
      "憾": 2715,
      "懂": 2716,
      "懈": 2717,
      "應": 2718,
      "懊": 2719,
      "懋": 2720,
      "懑": 2721,
      "懒": 2722,
      "懔": 2723,
      "懦": 2724,
      "懲": 2725,
      "懵": 2726,
      "懿": 2727,
      "戈": 2728,
      "戊": 2729,
      "戌": 2730,
      "戍": 2731,
      "戎": 2732,
      "戏": 2733,
      "成": 2734,
      "我": 2735,
      "戒": 2736,
      "戕": 2737,
      "或": 2738,
      "战": 2739,
      "戚": 2740,
      "戛": 2741,
      "戟": 2742,
      "戢": 2743,
      "戦": 2744,
      "截": 2745,
      "戬": 2746,
      "戮": 2747,
      "戰": 2748,
      "戲": 2749,
      "戳": 2750,
      "戴": 2751,
      "户": 2752,
      "戸": 2753,
      "戾": 2754,
      "房": 2755,
      "所": 2756,
      "扁": 2757,
      "扇": 2758,
      "扈": 2759,
      "扉": 2760,
      "手": 2761,
      "才": 2762,
      "扎": 2763,
      "扑": 2764,
      "扒": 2765,
      "打": 2766,
      "扔": 2767,
      "托": 2768,
      "扛": 2769,
      "扣": 2770,
      "执": 2771,
      "扩": 2772,
      "扪": 2773,
      "扫": 2774,
      "扬": 2775,
      "扭": 2776,
      "扮": 2777,
      "扯": 2778,
      "扰": 2779,
      "扳": 2780,
      "扶": 2781,
      "批": 2782,
      "扼": 2783,
      "找": 2784,
      "承": 2785,
      "技": 2786,
      "抄": 2787,
      "抉": 2788,
      "把": 2789,
      "抑": 2790,
      "抒": 2791,
      "抓": 2792,
      "抔": 2793,
      "投": 2794,
      "抖": 2795,
      "抗": 2796,
      "折": 2797,
      "抚": 2798,
      "抛": 2799,
      "抜": 2800,
      "抟": 2801,
      "抠": 2802,
      "抡": 2803,
      "抢": 2804,
      "护": 2805,
      "报": 2806,
      "抨": 2807,
      "披": 2808,
      "抬": 2809,
      "抱": 2810,
      "抵": 2811,
      "抹": 2812,
      "抻": 2813,
      "押": 2814,
      "抽": 2815,
      "抿": 2816,
      "拂": 2817,
      "拄": 2818,
      "担": 2819,
      "拆": 2820,
      "拇": 2821,
      "拈": 2822,
      "拉": 2823,
      "拌": 2824,
      "拍": 2825,
      "拎": 2826,
      "拐": 2827,
      "拒": 2828,
      "拓": 2829,
      "拔": 2830,
      "拖": 2831,
      "拗": 2832,
      "拘": 2833,
      "拙": 2834,
      "拚": 2835,
      "招": 2836,
      "拜": 2837,
      "拟": 2838,
      "拢": 2839,
      "拣": 2840,
      "拥": 2841,
      "拦": 2842,
      "拧": 2843,
      "拨": 2844,
      "择": 2845,
      "括": 2846,
      "拭": 2847,
      "拮": 2848,
      "拯": 2849,
      "拱": 2850,
      "拳": 2851,
      "拴": 2852,
      "拷": 2853,
      "拼": 2854,
      "拽": 2855,
      "拾": 2856,
      "拿": 2857,
      "持": 2858,
      "挂": 2859,
      "指": 2860,
      "挈": 2861,
      "按": 2862,
      "挑": 2863,
      "挖": 2864,
      "挚": 2865,
      "挛": 2866,
      "挝": 2867,
      "挞": 2868,
      "挟": 2869,
      "挠": 2870,
      "挡": 2871,
      "挣": 2872,
      "挤": 2873,
      "挥": 2874,
      "挨": 2875,
      "挪": 2876,
      "挫": 2877,
      "振": 2878,
      "挲": 2879,
      "挺": 2880,
      "挽": 2881,
      "捂": 2882,
      "捅": 2883,
      "捆": 2884,
      "捉": 2885,
      "捋": 2886,
      "捍": 2887,
      "捎": 2888,
      "捏": 2889,
      "捐": 2890,
      "捕": 2891,
      "捞": 2892,
      "损": 2893,
      "捡": 2894,
      "换": 2895,
      "捣": 2896,
      "捧": 2897,
      "捨": 2898,
      "捭": 2899,
      "据": 2900,
      "捯": 2901,
      "捲": 2902,
      "捶": 2903,
      "捷": 2904,
      "捺": 2905,
      "捻": 2906,
      "掀": 2907,
      "掂": 2908,
      "掃": 2909,
      "掇": 2910,
      "授": 2911,
      "掉": 2912,
      "掌": 2913,
      "掏": 2914,
      "掐": 2915,
      "排": 2916,
      "掖": 2917,
      "掘": 2918,
      "掛": 2919,
      "掟": 2920,
      "掠": 2921,
      "採": 2922,
      "探": 2923,
      "掣": 2924,
      "接": 2925,
      "控": 2926,
      "推": 2927,
      "掩": 2928,
      "措": 2929,
      "掬": 2930,
      "掮": 2931,
      "掰": 2932,
      "掳": 2933,
      "掷": 2934,
      "掸": 2935,
      "掺": 2936,
      "揃": 2937,
      "揄": 2938,
      "揆": 2939,
      "揉": 2940,
      "揍": 2941,
      "描": 2942,
      "提": 2943,
      "插": 2944,
      "揚": 2945,
      "換": 2946,
      "揠": 2947,
      "握": 2948,
      "揣": 2949,
      "揩": 2950,
      "揪": 2951,
      "揭": 2952,
      "援": 2953,
      "揶": 2954,
      "揽": 2955,
      "搀": 2956,
      "搁": 2957,
      "搂": 2958,
      "搅": 2959,
      "損": 2960,
      "搏": 2961,
      "搐": 2962,
      "搓": 2963,
      "搔": 2964,
      "搖": 2965,
      "搜": 2966,
      "搞": 2967,
      "搡": 2968,
      "搪": 2969,
      "搬": 2970,
      "搭": 2971,
      "携": 2972,
      "搽": 2973,
      "搾": 2974,
      "摁": 2975,
      "摄": 2976,
      "摆": 2977,
      "摇": 2978,
      "摈": 2979,
      "摊": 2980,
      "摒": 2981,
      "摔": 2982,
      "摘": 2983,
      "摞": 2984,
      "摧": 2985,
      "摩": 2986,
      "摸": 2987,
      "摹": 2988,
      "撂": 2989,
      "撅": 2990,
      "撇": 2991,
      "撐": 2992,
      "撑": 2993,
      "撒": 2994,
      "撕": 2995,
      "撘": 2996,
      "撚": 2997,
      "撞": 2998,
      "撤": 2999,
      "撩": 3000,
      "撫": 3001,
      "撬": 3002,
      "播": 3003,
      "撮": 3004,
      "撰": 3005,
      "撵": 3006,
      "撸": 3007,
      "撼": 3008,
      "擀": 3009,
      "擂": 3010,
      "擅": 3011,
      "擊": 3012,
      "操": 3013,
      "擎": 3014,
      "擒": 3015,
      "擔": 3016,
      "擘": 3017,
      "據": 3018,
      "擢": 3019,
      "擦": 3020,
      "擺": 3021,
      "攀": 3022,
      "攒": 3023,
      "攘": 3024,
      "攥": 3025,
      "攫": 3026,
      "支": 3027,
      "攵": 3028,
      "收": 3029,
      "攸": 3030,
      "改": 3031,
      "攻": 3032,
      "放": 3033,
      "政": 3034,
      "敄": 3035,
      "故": 3036,
      "效": 3037,
      "敌": 3038,
      "敏": 3039,
      "救": 3040,
      "敔": 3041,
      "敕": 3042,
      "敖": 3043,
      "敗": 3044,
      "敘": 3045,
      "教": 3046,
      "敛": 3047,
      "敝": 3048,
      "敞": 3049,
      "敢": 3050,
      "散": 3051,
      "敦": 3052,
      "敬": 3053,
      "数": 3054,
      "敲": 3055,
      "整": 3056,
      "敵": 3057,
      "敷": 3058,
      "數": 3059,
      "文": 3060,
      "斋": 3061,
      "斌": 3062,
      "斐": 3063,
      "斑": 3064,
      "斓": 3065,
      "斗": 3066,
      "料": 3067,
      "斛": 3068,
      "斜": 3069,
      "斟": 3070,
      "斡": 3071,
      "斤": 3072,
      "斥": 3073,
      "斧": 3074,
      "斩": 3075,
      "斫": 3076,
      "断": 3077,
      "斯": 3078,
      "新": 3079,
      "斷": 3080,
      "方": 3081,
      "於": 3082,
      "施": 3083,
      "旁": 3084,
      "旅": 3085,
      "旋": 3086,
      "旎": 3087,
      "族": 3088,
      "旒": 3089,
      "旖": 3090,
      "旗": 3091,
      "无": 3092,
      "既": 3093,
      "日": 3094,
      "旦": 3095,
      "旧": 3096,
      "旨": 3097,
      "早": 3098,
      "旬": 3099,
      "旭": 3100,
      "旮": 3101,
      "旯": 3102,
      "旰": 3103,
      "旱": 3104,
      "时": 3105,
      "旷": 3106,
      "旺": 3107,
      "旻": 3108,
      "旼": 3109,
      "昀": 3110,
      "昂": 3111,
      "昆": 3112,
      "昇": 3113,
      "昉": 3114,
      "昊": 3115,
      "昌": 3116,
      "明": 3117,
      "昏": 3118,
      "易": 3119,
      "昔": 3120,
      "昕": 3121,
      "昙": 3122,
      "星": 3123,
      "映": 3124,
      "春": 3125,
      "昧": 3126,
      "昨": 3127,
      "昭": 3128,
      "是": 3129,
      "昱": 3130,
      "昴": 3131,
      "昵": 3132,
      "昶": 3133,
      "昼": 3134,
      "显": 3135,
      "晁": 3136,
      "時": 3137,
      "晃": 3138,
      "晄": 3139,
      "晋": 3140,
      "晌": 3141,
      "晏": 3142,
      "晒": 3143,
      "晓": 3144,
      "晔": 3145,
      "晕": 3146,
      "晖": 3147,
      "晗": 3148,
      "晚": 3149,
      "晞": 3150,
      "晟": 3151,
      "晤": 3152,
      "晦": 3153,
      "晨": 3154,
      "晩": 3155,
      "普": 3156,
      "景": 3157,
      "晰": 3158,
      "晴": 3159,
      "晶": 3160,
      "晷": 3161,
      "智": 3162,
      "晾": 3163,
      "暂": 3164,
      "暄": 3165,
      "暅": 3166,
      "暇": 3167,
      "暑": 3168,
      "暖": 3169,
      "暗": 3170,
      "暠": 3171,
      "暧": 3172,
      "暨": 3173,
      "暫": 3174,
      "暮": 3175,
      "暴": 3176,
      "暹": 3177,
      "曙": 3178,
      "曜": 3179,
      "曝": 3180,
      "曦": 3181,
      "曰": 3182,
      "曲": 3183,
      "曳": 3184,
      "更": 3185,
      "曷": 3186,
      "書": 3187,
      "曹": 3188,
      "曼": 3189,
      "曾": 3190,
      "替": 3191,
      "最": 3192,
      "會": 3193,
      "月": 3194,
      "有": 3195,
      "朋": 3196,
      "服": 3197,
      "朓": 3198,
      "朔": 3199,
      "朕": 3200,
      "朗": 3201,
      "望": 3202,
      "朝": 3203,
      "期": 3204,
      "朦": 3205,
      "木": 3206,
      "未": 3207,
      "末": 3208,
      "本": 3209,
      "札": 3210,
      "术": 3211,
      "朱": 3212,
      "朴": 3213,
      "朵": 3214,
      "机": 3215,
      "朽": 3216,
      "杀": 3217,
      "杂": 3218,
      "权": 3219,
      "杆": 3220,
      "杈": 3221,
      "杉": 3222,
      "杌": 3223,
      "李": 3224,
      "杏": 3225,
      "材": 3226,
      "村": 3227,
      "杓": 3228,
      "杖": 3229,
      "杜": 3230,
      "杞": 3231,
      "束": 3232,
      "杠": 3233,
      "条": 3234,
      "来": 3235,
      "杨": 3236,
      "杬": 3237,
      "杭": 3238,
      "杯": 3239,
      "杰": 3240,
      "東": 3241,
      "杳": 3242,
      "杵": 3243,
      "杷": 3244,
      "杼": 3245,
      "松": 3246,
      "板": 3247,
      "极": 3248,
      "构": 3249,
      "枇": 3250,
      "枉": 3251,
      "枋": 3252,
      "析": 3253,
      "枕": 3254,
      "林": 3255,
      "枚": 3256,
      "果": 3257,
      "枝": 3258,
      "枠": 3259,
      "枢": 3260,
      "枣": 3261,
      "枨": 3262,
      "枪": 3263,
      "枫": 3264,
      "枬": 3265,
      "枭": 3266,
      "枯": 3267,
      "枳": 3268,
      "架": 3269,
      "枷": 3270,
      "枸": 3271,
      "柄": 3272,
      "柊": 3273,
      "柏": 3274,
      "某": 3275,
      "柑": 3276,
      "柒": 3277,
      "染": 3278,
      "柔": 3279,
      "柘": 3280,
      "柚": 3281,
      "柜": 3282,
      "柠": 3283,
      "柢": 3284,
      "查": 3285,
      "柩": 3286,
      "柬": 3287,
      "柯": 3288,
      "柰": 3289,
      "柱": 3290,
      "柳": 3291,
      "柴": 3292,
      "査": 3293,
      "柿": 3294,
      "栀": 3295,
      "栄": 3296,
      "栅": 3297,
      "标": 3298,
      "栈": 3299,
      "栉": 3300,
      "栋": 3301,
      "栎": 3302,
      "栏": 3303,
      "树": 3304,
      "栓": 3305,
      "栖": 3306,
      "栗": 3307,
      "校": 3308,
      "栧": 3309,
      "栩": 3310,
      "株": 3311,
      "栲": 3312,
      "样": 3313,
      "核": 3314,
      "根": 3315,
      "栻": 3316,
      "格": 3317,
      "栽": 3318,
      "桀": 3319,
      "桂": 3320,
      "桃": 3321,
      "桅": 3322,
      "框": 3323,
      "案": 3324,
      "桉": 3325,
      "桌": 3326,
      "桎": 3327,
      "桐": 3328,
      "桑": 3329,
      "桓": 3330,
      "桔": 3331,
      "桕": 3332,
      "桜": 3333,
      "桠": 3334,
      "桡": 3335,
      "桢": 3336,
      "档": 3337,
      "桥": 3338,
      "桦": 3339,
      "桧": 3340,
      "桨": 3341,
      "桩": 3342,
      "桴": 3343,
      "桶": 3344,
      "梁": 3345,
      "梅": 3346,
      "梆": 3347,
      "梏": 3348,
      "梓": 3349,
      "梗": 3350,
      "條": 3351,
      "梡": 3352,
      "梢": 3353,
      "梦": 3354,
      "梧": 3355,
      "梨": 3356,
      "梭": 3357,
      "梯": 3358,
      "械": 3359,
      "梳": 3360,
      "梵": 3361,
      "梶": 3362,
      "梼": 3363,
      "检": 3364,
      "棂": 3365,
      "棄": 3366,
      "棉": 3367,
      "棋": 3368,
      "棍": 3369,
      "棒": 3370,
      "棕": 3371,
      "棘": 3372,
      "棚": 3373,
      "棠": 3374,
      "棣": 3375,
      "森": 3376,
      "棱": 3377,
      "棵": 3378,
      "棹": 3379,
      "棺": 3380,
      "椁": 3381,
      "椅": 3382,
      "椋": 3383,
      "植": 3384,
      "椎": 3385,
      "椒": 3386,
      "椟": 3387,
      "椤": 3388,
      "椭": 3389,
      "椰": 3390,
      "椴": 3391,
      "椹": 3392,
      "椽": 3393,
      "椿": 3394,
      "楂": 3395,
      "楊": 3396,
      "楔": 3397,
      "楚": 3398,
      "楞": 3399,
      "楠": 3400,
      "楢": 3401,
      "楪": 3402,
      "楫": 3403,
      "楬": 3404,
      "業": 3405,
      "楮": 3406,
      "極": 3407,
      "楷": 3408,
      "楼": 3409,
      "楽": 3410,
      "概": 3411,
      "榄": 3412,
      "榆": 3413,
      "榈": 3414,
      "榉": 3415,
      "榊": 3416,
      "榎": 3417,
      "榔": 3418,
      "榕": 3419,
      "榛": 3420,
      "榜": 3421,
      "榨": 3422,
      "榫": 3423,
      "榭": 3424,
      "榴": 3425,
      "榷": 3426,
      "榻": 3427,
      "槃": 3428,
      "槊": 3429,
      "構": 3430,
      "槌": 3431,
      "槐": 3432,
      "様": 3433,
      "槙": 3434,
      "槛": 3435,
      "槟": 3436,
      "槭": 3437,
      "槲": 3438,
      "槻": 3439,
      "槽": 3440,
      "槿": 3441,
      "樂": 3442,
      "樊": 3443,
      "標": 3444,
      "樟": 3445,
      "模": 3446,
      "樣": 3447,
      "樨": 3448,
      "横": 3449,
      "樫": 3450,
      "樯": 3451,
      "樱": 3452,
      "樵": 3453,
      "樹": 3454,
      "樽": 3455,
      "樾": 3456,
      "橄": 3457,
      "橇": 3458,
      "橋": 3459,
      "橘": 3460,
      "橙": 3461,
      "機": 3462,
      "橡": 3463,
      "橫": 3464,
      "橱": 3465,
      "橼": 3466,
      "檀": 3467,
      "檄": 3468,
      "檎": 3469,
      "檐": 3470,
      "檢": 3471,
      "檫": 3472,
      "檬": 3473,
      "櫶": 3474,
      "櫻": 3475,
      "權": 3476,
      "欠": 3477,
      "次": 3478,
      "欢": 3479,
      "欣": 3480,
      "欧": 3481,
      "欲": 3482,
      "欸": 3483,
      "欹": 3484,
      "欺": 3485,
      "欻": 3486,
      "款": 3487,
      "歇": 3488,
      "歉": 3489,
      "歌": 3490,
      "歎": 3491,
      "歡": 3492,
      "止": 3493,
      "正": 3494,
      "此": 3495,
      "步": 3496,
      "武": 3497,
      "歧": 3498,
      "歩": 3499,
      "歪": 3500,
      "歳": 3501,
      "歴": 3502,
      "歷": 3503,
      "歹": 3504,
      "死": 3505,
      "歼": 3506,
      "殃": 3507,
      "殄": 3508,
      "殆": 3509,
      "殇": 3510,
      "殉": 3511,
      "殊": 3512,
      "残": 3513,
      "殍": 3514,
      "殒": 3515,
      "殓": 3516,
      "殖": 3517,
      "殡": 3518,
      "殭": 3519,
      "殴": 3520,
      "段": 3521,
      "殷": 3522,
      "殺": 3523,
      "殻": 3524,
      "殿": 3525,
      "毁": 3526,
      "毂": 3527,
      "毅": 3528,
      "毋": 3529,
      "母": 3530,
      "毎": 3531,
      "每": 3532,
      "毒": 3533,
      "毓": 3534,
      "比": 3535,
      "毕": 3536,
      "毗": 3537,
      "毘": 3538,
      "毙": 3539,
      "毛": 3540,
      "毡": 3541,
      "毫": 3542,
      "毯": 3543,
      "毳": 3544,
      "毼": 3545,
      "毽": 3546,
      "氏": 3547,
      "氐": 3548,
      "民": 3549,
      "氓": 3550,
      "气": 3551,
      "気": 3552,
      "氘": 3553,
      "氙": 3554,
      "氛": 3555,
      "氟": 3556,
      "氡": 3557,
      "氢": 3558,
      "氣": 3559,
      "氤": 3560,
      "氦": 3561,
      "氧": 3562,
      "氨": 3563,
      "氪": 3564,
      "氮": 3565,
      "氯": 3566,
      "氰": 3567,
      "氲": 3568,
      "水": 3569,
      "氷": 3570,
      "永": 3571,
      "氽": 3572,
      "汀": 3573,
      "汁": 3574,
      "求": 3575,
      "汆": 3576,
      "汇": 3577,
      "汉": 3578,
      "汐": 3579,
      "汕": 3580,
      "汗": 3581,
      "汜": 3582,
      "汝": 3583,
      "汞": 3584,
      "江": 3585,
      "池": 3586,
      "污": 3587,
      "汤": 3588,
      "汪": 3589,
      "汰": 3590,
      "汲": 3591,
      "汴": 3592,
      "汶": 3593,
      "汹": 3594,
      "決": 3595,
      "汽": 3596,
      "汾": 3597,
      "沁": 3598,
      "沂": 3599,
      "沃": 3600,
      "沅": 3601,
      "沆": 3602,
      "沈": 3603,
      "沉": 3604,
      "沋": 3605,
      "沌": 3606,
      "沐": 3607,
      "沒": 3608,
      "沓": 3609,
      "沔": 3610,
      "沖": 3611,
      "沙": 3612,
      "沛": 3613,
      "沟": 3614,
      "没": 3615,
      "沢": 3616,
      "沣": 3617,
      "沤": 3618,
      "沥": 3619,
      "沦": 3620,
      "沧": 3621,
      "沨": 3622,
      "沪": 3623,
      "沫": 3624,
      "沮": 3625,
      "沱": 3626,
      "河": 3627,
      "沸": 3628,
      "油": 3629,
      "治": 3630,
      "沼": 3631,
      "沽": 3632,
      "沾": 3633,
      "沿": 3634,
      "況": 3635,
      "泄": 3636,
      "泉": 3637,
      "泊": 3638,
      "泌": 3639,
      "泒": 3640,
      "泓": 3641,
      "泔": 3642,
      "法": 3643,
      "泗": 3644,
      "泚": 3645,
      "泛": 3646,
      "泜": 3647,
      "泞": 3648,
      "泠": 3649,
      "泡": 3650,
      "波": 3651,
      "泣": 3652,
      "泥": 3653,
      "注": 3654,
      "泪": 3655,
      "泮": 3656,
      "泯": 3657,
      "泰": 3658,
      "泱": 3659,
      "泳": 3660,
      "泵": 3661,
      "泷": 3662,
      "泸": 3663,
      "泻": 3664,
      "泼": 3665,
      "泽": 3666,
      "泾": 3667,
      "洁": 3668,
      "洇": 3669,
      "洋": 3670,
      "洎": 3671,
      "洏": 3672,
      "洒": 3673,
      "洗": 3674,
      "洙": 3675,
      "洛": 3676,
      "洞": 3677,
      "津": 3678,
      "洪": 3679,
      "洮": 3680,
      "洰": 3681,
      "洱": 3682,
      "洲": 3683,
      "洵": 3684,
      "洸": 3685,
      "活": 3686,
      "洼": 3687,
      "洽": 3688,
      "派": 3689,
      "流": 3690,
      "浃": 3691,
      "浅": 3692,
      "浆": 3693,
      "浇": 3694,
      "浊": 3695,
      "测": 3696,
      "济": 3697,
      "浏": 3698,
      "浑": 3699,
      "浒": 3700,
      "浓": 3701,
      "浔": 3702,
      "浙": 3703,
      "浚": 3704,
      "浜": 3705,
      "浠": 3706,
      "浣": 3707,
      "浦": 3708,
      "浩": 3709,
      "浪": 3710,
      "浮": 3711,
      "浯": 3712,
      "浴": 3713,
      "海": 3714,
      "浸": 3715,
      "涂": 3716,
      "涅": 3717,
      "消": 3718,
      "涉": 3719,
      "涌": 3720,
      "涎": 3721,
      "涑": 3722,
      "涓": 3723,
      "涔": 3724,
      "涕": 3725,
      "涘": 3726,
      "涙": 3727,
      "涛": 3728,
      "涝": 3729,
      "涞": 3730,
      "涟": 3731,
      "涡": 3732,
      "涣": 3733,
      "涤": 3734,
      "润": 3735,
      "涧": 3736,
      "涨": 3737,
      "涩": 3738,
      "涪": 3739,
      "涮": 3740,
      "涯": 3741,
      "液": 3742,
      "涵": 3743,
      "涸": 3744,
      "涿": 3745,
      "淀": 3746,
      "淄": 3747,
      "淅": 3748,
      "淆": 3749,
      "淇": 3750,
      "淋": 3751,
      "淌": 3752,
      "淑": 3753,
      "淖": 3754,
      "淘": 3755,
      "淚": 3756,
      "淝": 3757,
      "淡": 3758,
      "淤": 3759,
      "淦": 3760,
      "淩": 3761,
      "淫": 3762,
      "淬": 3763,
      "淮": 3764,
      "淯": 3765,
      "深": 3766,
      "淳": 3767,
      "混": 3768,
      "淹": 3769,
      "淺": 3770,
      "添": 3771,
      "淼": 3772,
      "清": 3773,
      "済": 3774,
      "渊": 3775,
      "渍": 3776,
      "渎": 3777,
      "渐": 3778,
      "渑": 3779,
      "渔": 3780,
      "渕": 3781,
      "渗": 3782,
      "渚": 3783,
      "減": 3784,
      "渝": 3785,
      "渠": 3786,
      "渡": 3787,
      "渣": 3788,
      "渤": 3789,
      "渥": 3790,
      "温": 3791,
      "渭": 3792,
      "港": 3793,
      "渲": 3794,
      "渴": 3795,
      "游": 3796,
      "渺": 3797,
      "湃": 3798,
      "湄": 3799,
      "湊": 3800,
      "湍": 3801,
      "湖": 3802,
      "湘": 3803,
      "湛": 3804,
      "湧": 3805,
      "湮": 3806,
      "湾": 3807,
      "湿": 3808,
      "溃": 3809,
      "溅": 3810,
      "溆": 3811,
      "溉": 3812,
      "溏": 3813,
      "源": 3814,
      "準": 3815,
      "溜": 3816,
      "溟": 3817,
      "溢": 3818,
      "溥": 3819,
      "溪": 3820,
      "溯": 3821,
      "溱": 3822,
      "溴": 3823,
      "溶": 3824,
      "溺": 3825,
      "溽": 3826,
      "滂": 3827,
      "滅": 3828,
      "滇": 3829,
      "滋": 3830,
      "滑": 3831,
      "滓": 3832,
      "滔": 3833,
      "滕": 3834,
      "滚": 3835,
      "滞": 3836,
      "滠": 3837,
      "满": 3838,
      "滤": 3839,
      "滥": 3840,
      "滨": 3841,
      "滩": 3842,
      "滴": 3843,
      "滹": 3844,
      "漂": 3845,
      "漆": 3846,
      "漉": 3847,
      "漏": 3848,
      "漓": 3849,
      "演": 3850,
      "漕": 3851,
      "漠": 3852,
      "漢": 3853,
      "漩": 3854,
      "漪": 3855,
      "漫": 3856,
      "漱": 3857,
      "漳": 3858,
      "漸": 3859,
      "漾": 3860,
      "潇": 3861,
      "潍": 3862,
      "潔": 3863,
      "潘": 3864,
      "潜": 3865,
      "潢": 3866,
      "潤": 3867,
      "潦": 3868,
      "潭": 3869,
      "潮": 3870,
      "潴": 3871,
      "潸": 3872,
      "潺": 3873,
      "潼": 3874,
      "澂": 3875,
      "澄": 3876,
      "澈": 3877,
      "澍": 3878,
      "澎": 3879,
      "澜": 3880,
      "澡": 3881,
      "澤": 3882,
      "澧": 3883,
      "澳": 3884,
      "澶": 3885,
      "澹": 3886,
      "激": 3887,
      "濆": 3888,
      "濑": 3889,
      "濒": 3890,
      "濛": 3891,
      "濟": 3892,
      "濡": 3893,
      "濬": 3894,
      "濮": 3895,
      "濯": 3896,
      "瀑": 3897,
      "瀓": 3898,
      "瀚": 3899,
      "瀛": 3900,
      "瀣": 3901,
      "灌": 3902,
      "灏": 3903,
      "火": 3904,
      "灭": 3905,
      "灯": 3906,
      "灰": 3907,
      "灵": 3908,
      "灶": 3909,
      "灸": 3910,
      "灼": 3911,
      "灾": 3912,
      "灿": 3913,
      "炀": 3914,
      "炁": 3915,
      "炅": 3916,
      "炆": 3917,
      "炉": 3918,
      "炊": 3919,
      "炎": 3920,
      "炒": 3921,
      "炔": 3922,
      "炕": 3923,
      "炖": 3924,
      "炙": 3925,
      "炜": 3926,
      "炝": 3927,
      "炫": 3928,
      "炬": 3929,
      "炭": 3930,
      "炮": 3931,
      "炯": 3932,
      "炳": 3933,
      "炸": 3934,
      "点": 3935,
      "為": 3936,
      "炼": 3937,
      "炽": 3938,
      "烁": 3939,
      "烂": 3940,
      "烃": 3941,
      "烈": 3942,
      "烊": 3943,
      "烘": 3944,
      "烙": 3945,
      "烛": 3946,
      "烝": 3947,
      "烟": 3948,
      "烤": 3949,
      "烦": 3950,
      "烧": 3951,
      "烨": 3952,
      "烩": 3953,
      "烫": 3954,
      "烬": 3955,
      "热": 3956,
      "烯": 3957,
      "烷": 3958,
      "烹": 3959,
      "烺": 3960,
      "烽": 3961,
      "焉": 3962,
      "焊": 3963,
      "焐": 3964,
      "焓": 3965,
      "焕": 3966,
      "焖": 3967,
      "焗": 3968,
      "焘": 3969,
      "焙": 3970,
      "焚": 3971,
      "焞": 3972,
      "無": 3973,
      "焦": 3974,
      "焮": 3975,
      "焯": 3976,
      "焰": 3977,
      "焱": 3978,
      "然": 3979,
      "煊": 3980,
      "煌": 3981,
      "煎": 3982,
      "煜": 3983,
      "煞": 3984,
      "煤": 3985,
      "照": 3986,
      "煨": 3987,
      "煮": 3988,
      "煲": 3989,
      "煸": 3990,
      "煽": 3991,
      "熄": 3992,
      "熊": 3993,
      "熏": 3994,
      "熔": 3995,
      "熘": 3996,
      "熙": 3997,
      "熟": 3998,
      "熠": 3999,
      "熨": 4000,
      "熬": 4001,
      "熱": 4002,
      "熵": 4003,
      "熹": 4004,
      "燃": 4005,
      "燈": 4006,
      "燎": 4007,
      "燔": 4008,
      "燕": 4009,
      "燥": 4010,
      "燧": 4011,
      "燮": 4012,
      "爆": 4013,
      "爊": 4014,
      "爪": 4015,
      "爬": 4016,
      "爰": 4017,
      "爱": 4018,
      "爲": 4019,
      "爵": 4020,
      "父": 4021,
      "爷": 4022,
      "爸": 4023,
      "爹": 4024,
      "爻": 4025,
      "爽": 4026,
      "爾": 4027,
      "牁": 4028,
      "牂": 4029,
      "牆": 4030,
      "片": 4031,
      "版": 4032,
      "牌": 4033,
      "牍": 4034,
      "牒": 4035,
      "牙": 4036,
      "牛": 4037,
      "牟": 4038,
      "牠": 4039,
      "牡": 4040,
      "牢": 4041,
      "牦": 4042,
      "牧": 4043,
      "物": 4044,
      "牯": 4045,
      "牲": 4046,
      "牵": 4047,
      "特": 4048,
      "牺": 4049,
      "犀": 4050,
      "犁": 4051,
      "犄": 4052,
      "犇": 4053,
      "犊": 4054,
      "犍": 4055,
      "犒": 4056,
      "犟": 4057,
      "犬": 4058,
      "犯": 4059,
      "犰": 4060,
      "状": 4061,
      "犷": 4062,
      "犸": 4063,
      "犹": 4064,
      "犽": 4065,
      "狂": 4066,
      "狄": 4067,
      "狈": 4068,
      "狉": 4069,
      "狍": 4070,
      "狐": 4071,
      "狗": 4072,
      "狙": 4073,
      "狞": 4074,
      "狠": 4075,
      "狡": 4076,
      "狩": 4077,
      "独": 4078,
      "狭": 4079,
      "狮": 4080,
      "狰": 4081,
      "狱": 4082,
      "狳": 4083,
      "狸": 4084,
      "狼": 4085,
      "猁": 4086,
      "猎": 4087,
      "猕": 4088,
      "猖": 4089,
      "猗": 4090,
      "猛": 4091,
      "猜": 4092,
      "猝": 4093,
      "猞": 4094,
      "猥": 4095,
      "猩": 4096,
      "猪": 4097,
      "猫": 4098,
      "猬": 4099,
      "献": 4100,
      "猯": 4101,
      "猴": 4102,
      "猾": 4103,
      "猿": 4104,
      "獐": 4105,
      "獒": 4106,
      "獗": 4107,
      "獠": 4108,
      "獣": 4109,
      "獭": 4110,
      "獲": 4111,
      "獻": 4112,
      "獾": 4113,
      "玄": 4114,
      "率": 4115,
      "玉": 4116,
      "王": 4117,
      "玑": 4118,
      "玕": 4119,
      "玖": 4120,
      "玛": 4121,
      "玠": 4122,
      "玥": 4123,
      "玦": 4124,
      "玩": 4125,
      "玫": 4126,
      "玮": 4127,
      "环": 4128,
      "现": 4129,
      "玲": 4130,
      "玳": 4131,
      "玷": 4132,
      "玺": 4133,
      "玻": 4134,
      "珀": 4135,
      "珂": 4136,
      "珈": 4137,
      "珉": 4138,
      "珊": 4139,
      "珍": 4140,
      "珐": 4141,
      "珑": 4142,
      "珙": 4143,
      "珞": 4144,
      "珠": 4145,
      "珥": 4146,
      "珦": 4147,
      "珪": 4148,
      "班": 4149,
      "珺": 4150,
      "現": 4151,
      "琂": 4152,
      "球": 4153,
      "琅": 4154,
      "理": 4155,
      "琇": 4156,
      "琉": 4157,
      "琊": 4158,
      "琍": 4159,
      "琐": 4160,
      "琛": 4161,
      "琢": 4162,
      "琥": 4163,
      "琦": 4164,
      "琨": 4165,
      "琪": 4166,
      "琬": 4167,
      "琮": 4168,
      "琰": 4169,
      "琲": 4170,
      "琳": 4171,
      "琴": 4172,
      "琵": 4173,
      "琶": 4174,
      "琼": 4175,
      "瑄": 4176,
      "瑕": 4177,
      "瑗": 4178,
      "瑙": 4179,
      "瑚": 4180,
      "瑛": 4181,
      "瑜": 4182,
      "瑞": 4183,
      "瑟": 4184,
      "瑠": 4185,
      "瑢": 4186,
      "瑭": 4187,
      "瑰": 4188,
      "瑶": 4189,
      "瑸": 4190,
      "瑾": 4191,
      "璀": 4192,
      "璃": 4193,
      "璇": 4194,
      "璋": 4195,
      "璐": 4196,
      "璜": 4197,
      "璞": 4198,
      "璟": 4199,
      "璠": 4200,
      "璧": 4201,
      "璨": 4202,
      "璩": 4203,
      "璪": 4204,
      "環": 4205,
      "瓜": 4206,
      "瓢": 4207,
      "瓣": 4208,
      "瓤": 4209,
      "瓦": 4210,
      "瓮": 4211,
      "瓯": 4212,
      "瓴": 4213,
      "瓶": 4214,
      "瓷": 4215,
      "甄": 4216,
      "甑": 4217,
      "甖": 4218,
      "甗": 4219,
      "甘": 4220,
      "甙": 4221,
      "甚": 4222,
      "甜": 4223,
      "生": 4224,
      "產": 4225,
      "産": 4226,
      "甥": 4227,
      "甦": 4228,
      "用": 4229,
      "甩": 4230,
      "甫": 4231,
      "甬": 4232,
      "甭": 4233,
      "田": 4234,
      "由": 4235,
      "甲": 4236,
      "申": 4237,
      "电": 4238,
      "男": 4239,
      "甸": 4240,
      "町": 4241,
      "画": 4242,
      "甾": 4243,
      "畅": 4244,
      "界": 4245,
      "畏": 4246,
      "畑": 4247,
      "畔": 4248,
      "留": 4249,
      "畜": 4250,
      "畢": 4251,
      "略": 4252,
      "番": 4253,
      "畫": 4254,
      "異": 4255,
      "畳": 4256,
      "畴": 4257,
      "當": 4258,
      "畸": 4259,
      "畹": 4260,
      "畿": 4261,
      "疆": 4262,
      "疊": 4263,
      "疏": 4264,
      "疑": 4265,
      "疖": 4266,
      "疗": 4267,
      "疙": 4268,
      "疚": 4269,
      "疝": 4270,
      "疟": 4271,
      "疡": 4272,
      "疤": 4273,
      "疫": 4274,
      "疮": 4275,
      "疯": 4276,
      "疱": 4277,
      "疲": 4278,
      "疵": 4279,
      "疸": 4280,
      "疹": 4281,
      "疼": 4282,
      "疽": 4283,
      "疾": 4284,
      "痂": 4285,
      "病": 4286,
      "症": 4287,
      "痉": 4288,
      "痊": 4289,
      "痍": 4290,
      "痒": 4291,
      "痔": 4292,
      "痕": 4293,
      "痖": 4294,
      "痘": 4295,
      "痛": 4296,
      "痞": 4297,
      "痢": 4298,
      "痣": 4299,
      "痤": 4300,
      "痧": 4301,
      "痨": 4302,
      "痩": 4303,
      "痪": 4304,
      "痫": 4305,
      "痰": 4306,
      "痱": 4307,
      "痴": 4308,
      "痹": 4309,
      "痼": 4310,
      "痿": 4311,
      "瘀": 4312,
      "瘁": 4313,
      "瘆": 4314,
      "瘙": 4315,
      "瘟": 4316,
      "瘠": 4317,
      "瘢": 4318,
      "瘤": 4319,
      "瘦": 4320,
      "瘩": 4321,
      "瘪": 4322,
      "瘫": 4323,
      "瘰": 4324,
      "瘴": 4325,
      "瘸": 4326,
      "瘾": 4327,
      "療": 4328,
      "癌": 4329,
      "癒": 4330,
      "癔": 4331,
      "癖": 4332,
      "癜": 4333,
      "癞": 4334,
      "癣": 4335,
      "癫": 4336,
      "癯": 4337,
      "癸": 4338,
      "発": 4339,
      "登": 4340,
      "發": 4341,
      "白": 4342,
      "百": 4343,
      "皂": 4344,
      "的": 4345,
      "皆": 4346,
      "皇": 4347,
      "皈": 4348,
      "皋": 4349,
      "皎": 4350,
      "皑": 4351,
      "皓": 4352,
      "皖": 4353,
      "皙": 4354,
      "皝": 4355,
      "皮": 4356,
      "皱": 4357,
      "皲": 4358,
      "皴": 4359,
      "皿": 4360,
      "盂": 4361,
      "盅": 4362,
      "盆": 4363,
      "盈": 4364,
      "益": 4365,
      "盎": 4366,
      "盏": 4367,
      "盐": 4368,
      "监": 4369,
      "盒": 4370,
      "盔": 4371,
      "盖": 4372,
      "盗": 4373,
      "盘": 4374,
      "盛": 4375,
      "盟": 4376,
      "盡": 4377,
      "監": 4378,
      "盥": 4379,
      "盦": 4380,
      "目": 4381,
      "盯": 4382,
      "盲": 4383,
      "直": 4384,
      "相": 4385,
      "盹": 4386,
      "盼": 4387,
      "盾": 4388,
      "省": 4389,
      "眄": 4390,
      "眇": 4391,
      "眈": 4392,
      "眉": 4393,
      "看": 4394,
      "県": 4395,
      "真": 4396,
      "眠": 4397,
      "眦": 4398,
      "眨": 4399,
      "眩": 4400,
      "眯": 4401,
      "眶": 4402,
      "眷": 4403,
      "眸": 4404,
      "眺": 4405,
      "眼": 4406,
      "眾": 4407,
      "着": 4408,
      "睁": 4409,
      "睐": 4410,
      "睑": 4411,
      "睚": 4412,
      "睛": 4413,
      "睡": 4414,
      "睢": 4415,
      "督": 4416,
      "睥": 4417,
      "睦": 4418,
      "睨": 4419,
      "睫": 4420,
      "睬": 4421,
      "睹": 4422,
      "睽": 4423,
      "睾": 4424,
      "睿": 4425,
      "瞄": 4426,
      "瞅": 4427,
      "瞇": 4428,
      "瞌": 4429,
      "瞎": 4430,
      "瞒": 4431,
      "瞟": 4432,
      "瞠": 4433,
      "瞥": 4434,
      "瞧": 4435,
      "瞩": 4436,
      "瞪": 4437,
      "瞬": 4438,
      "瞭": 4439,
      "瞰": 4440,
      "瞳": 4441,
      "瞻": 4442,
      "瞾": 4443,
      "瞿": 4444,
      "矅": 4445,
      "矗": 4446,
      "矛": 4447,
      "矜": 4448,
      "矢": 4449,
      "矣": 4450,
      "知": 4451,
      "矩": 4452,
      "矫": 4453,
      "短": 4454,
      "矮": 4455,
      "石": 4456,
      "矶": 4457,
      "矽": 4458,
      "矾": 4459,
      "矿": 4460,
      "码": 4461,
      "砂": 4462,
      "砌": 4463,
      "砍": 4464,
      "砒": 4465,
      "研": 4466,
      "砖": 4467,
      "砚": 4468,
      "砝": 4469,
      "砥": 4470,
      "砧": 4471,
      "砭": 4472,
      "砰": 4473,
      "砲": 4474,
      "破": 4475,
      "砷": 4476,
      "砸": 4477,
      "砺": 4478,
      "砾": 4479,
      "础": 4480,
      "硅": 4481,
      "硌": 4482,
      "硒": 4483,
      "硕": 4484,
      "硙": 4485,
      "硝": 4486,
      "硫": 4487,
      "硬": 4488,
      "确": 4489,
      "硼": 4490,
      "碁": 4491,
      "碇": 4492,
      "碉": 4493,
      "碌": 4494,
      "碍": 4495,
      "碎": 4496,
      "碑": 4497,
      "碓": 4498,
      "碗": 4499,
      "碘": 4500,
      "碚": 4501,
      "碜": 4502,
      "碟": 4503,
      "碣": 4504,
      "碧": 4505,
      "碰": 4506,
      "碱": 4507,
      "碳": 4508,
      "碴": 4509,
      "確": 4510,
      "碼": 4511,
      "碾": 4512,
      "磁": 4513,
      "磅": 4514,
      "磊": 4515,
      "磋": 4516,
      "磐": 4517,
      "磔": 4518,
      "磕": 4519,
      "磨": 4520,
      "磷": 4521,
      "磺": 4522,
      "磾": 4523,
      "礁": 4524,
      "礎": 4525,
      "礪": 4526,
      "礴": 4527,
      "示": 4528,
      "礼": 4529,
      "社": 4530,
      "祀": 4531,
      "祁": 4532,
      "祂": 4533,
      "祇": 4534,
      "祈": 4535,
      "祉": 4536,
      "祎": 4537,
      "祐": 4538,
      "祕": 4539,
      "祖": 4540,
      "祚": 4541,
      "祛": 4542,
      "祝": 4543,
      "神": 4544,
      "祟": 4545,
      "祠": 4546,
      "祢": 4547,
      "祥": 4548,
      "祧": 4549,
      "票": 4550,
      "祭": 4551,
      "祯": 4552,
      "祷": 4553,
      "祸": 4554,
      "祺": 4555,
      "禀": 4556,
      "禁": 4557,
      "禄": 4558,
      "禅": 4559,
      "禍": 4560,
      "福": 4561,
      "禧": 4562,
      "禹": 4563,
      "禺": 4564,
      "离": 4565,
      "禽": 4566,
      "禾": 4567,
      "秀": 4568,
      "私": 4569,
      "秃": 4570,
      "秆": 4571,
      "秉": 4572,
      "秋": 4573,
      "种": 4574,
      "科": 4575,
      "秒": 4576,
      "秕": 4577,
      "秘": 4578,
      "租": 4579,
      "秤": 4580,
      "秦": 4581,
      "秧": 4582,
      "秩": 4583,
      "积": 4584,
      "称": 4585,
      "移": 4586,
      "秽": 4587,
      "稀": 4588,
      "稅": 4589,
      "程": 4590,
      "稍": 4591,
      "税": 4592,
      "稔": 4593,
      "稗": 4594,
      "稚": 4595,
      "稞": 4596,
      "稠": 4597,
      "稣": 4598,
      "種": 4599,
      "稱": 4600,
      "稳": 4601,
      "稷": 4602,
      "稹": 4603,
      "稻": 4604,
      "稼": 4605,
      "稽": 4606,
      "稿": 4607,
      "穆": 4608,
      "積": 4609,
      "穗": 4610,
      "穰": 4611,
      "穴": 4612,
      "究": 4613,
      "穷": 4614,
      "穹": 4615,
      "空": 4616,
      "穿": 4617,
      "突": 4618,
      "窃": 4619,
      "窄": 4620,
      "窈": 4621,
      "窍": 4622,
      "窑": 4623,
      "窒": 4624,
      "窕": 4625,
      "窖": 4626,
      "窗": 4627,
      "窘": 4628,
      "窜": 4629,
      "窝": 4630,
      "窟": 4631,
      "窠": 4632,
      "窣": 4633,
      "窥": 4634,
      "窦": 4635,
      "窨": 4636,
      "窪": 4637,
      "窳": 4638,
      "窸": 4639,
      "窿": 4640,
      "立": 4641,
      "竑": 4642,
      "竖": 4643,
      "站": 4644,
      "竜": 4645,
      "竞": 4646,
      "竟": 4647,
      "章": 4648,
      "竣": 4649,
      "童": 4650,
      "竭": 4651,
      "端": 4652,
      "竹": 4653,
      "竺": 4654,
      "竽": 4655,
      "竿": 4656,
      "笃": 4657,
      "笆": 4658,
      "笈": 4659,
      "笊": 4660,
      "笋": 4661,
      "笏": 4662,
      "笑": 4663,
      "笔": 4664,
      "笙": 4665,
      "笛": 4666,
      "笞": 4667,
      "笠": 4668,
      "符": 4669,
      "笨": 4670,
      "笫": 4671,
      "第": 4672,
      "笳": 4673,
      "笵": 4674,
      "笹": 4675,
      "笺": 4676,
      "笼": 4677,
      "筆": 4678,
      "等": 4679,
      "筋": 4680,
      "筏": 4681,
      "筐": 4682,
      "筑": 4683,
      "筒": 4684,
      "答": 4685,
      "策": 4686,
      "筚": 4687,
      "筛": 4688,
      "筝": 4689,
      "筠": 4690,
      "筮": 4691,
      "筱": 4692,
      "筵": 4693,
      "筷": 4694,
      "筹": 4695,
      "签": 4696,
      "简": 4697,
      "箋": 4698,
      "箍": 4699,
      "箓": 4700,
      "箔": 4701,
      "箕": 4702,
      "算": 4703,
      "箜": 4704,
      "管": 4705,
      "箩": 4706,
      "箪": 4707,
      "箫": 4708,
      "箭": 4709,
      "箱": 4710,
      "箴": 4711,
      "箸": 4712,
      "節": 4713,
      "篆": 4714,
      "篇": 4715,
      "篌": 4716,
      "篑": 4717,
      "篓": 4718,
      "篙": 4719,
      "篝": 4720,
      "篠": 4721,
      "篡": 4722,
      "篦": 4723,
      "篪": 4724,
      "篮": 4725,
      "篱": 4726,
      "篷": 4727,
      "簇": 4728,
      "簋": 4729,
      "簌": 4730,
      "簟": 4731,
      "簡": 4732,
      "簧": 4733,
      "簪": 4734,
      "簷": 4735,
      "簸": 4736,
      "簿": 4737,
      "籁": 4738,
      "籍": 4739,
      "籑": 4740,
      "米": 4741,
      "籴": 4742,
      "类": 4743,
      "籼": 4744,
      "籽": 4745,
      "粉": 4746,
      "粑": 4747,
      "粒": 4748,
      "粕": 4749,
      "粗": 4750,
      "粘": 4751,
      "粝": 4752,
      "粟": 4753,
      "粢": 4754,
      "粤": 4755,
      "粥": 4756,
      "粪": 4757,
      "粮": 4758,
      "粱": 4759,
      "粲": 4760,
      "粹": 4761,
      "粼": 4762,
      "粽": 4763,
      "精": 4764,
      "粿": 4765,
      "糀": 4766,
      "糁": 4767,
      "糅": 4768,
      "糊": 4769,
      "糍": 4770,
      "糕": 4771,
      "糖": 4772,
      "糗": 4773,
      "糙": 4774,
      "糜": 4775,
      "糟": 4776,
      "糠": 4777,
      "糨": 4778,
      "糯": 4779,
      "糸": 4780,
      "系": 4781,
      "糾": 4782,
      "紀": 4783,
      "約": 4784,
      "紅": 4785,
      "紈": 4786,
      "紊": 4787,
      "紐": 4788,
      "純": 4789,
      "紘": 4790,
      "紙": 4791,
      "級": 4792,
      "素": 4793,
      "索": 4794,
      "紧": 4795,
      "紫": 4796,
      "累": 4797,
      "細": 4798,
      "紺": 4799,
      "終": 4800,
      "組": 4801,
      "経": 4802,
      "結": 4803,
      "絕": 4804,
      "絡": 4805,
      "給": 4806,
      "絮": 4807,
      "統": 4808,
      "絶": 4809,
      "綏": 4810,
      "經": 4811,
      "維": 4812,
      "綰": 4813,
      "網": 4814,
      "綷": 4815,
      "総": 4816,
      "緑": 4817,
      "緒": 4818,
      "線": 4819,
      "編": 4820,
      "練": 4821,
      "縄": 4822,
      "縉": 4823,
      "縯": 4824,
      "總": 4825,
      "繁": 4826,
      "織": 4827,
      "繼": 4828,
      "纁": 4829,
      "纂": 4830,
      "續": 4831,
      "纍": 4832,
      "纏": 4833,
      "纔": 4834,
      "纖": 4835,
      "纠": 4836,
      "红": 4837,
      "纣": 4838,
      "纤": 4839,
      "纥": 4840,
      "约": 4841,
      "级": 4842,
      "纨": 4843,
      "纪": 4844,
      "纫": 4845,
      "纬": 4846,
      "纭": 4847,
      "纯": 4848,
      "纰": 4849,
      "纱": 4850,
      "纲": 4851,
      "纳": 4852,
      "纵": 4853,
      "纶": 4854,
      "纷": 4855,
      "纸": 4856,
      "纹": 4857,
      "纺": 4858,
      "纽": 4859,
      "纾": 4860,
      "线": 4861,
      "绀": 4862,
      "练": 4863,
      "组": 4864,
      "绅": 4865,
      "细": 4866,
      "织": 4867,
      "终": 4868,
      "绊": 4869,
      "绌": 4870,
      "绍": 4871,
      "绎": 4872,
      "经": 4873,
      "绑": 4874,
      "绒": 4875,
      "结": 4876,
      "绔": 4877,
      "绕": 4878,
      "绘": 4879,
      "给": 4880,
      "绚": 4881,
      "绛": 4882,
      "络": 4883,
      "绝": 4884,
      "绞": 4885,
      "统": 4886,
      "绢": 4887,
      "绣": 4888,
      "绥": 4889,
      "绦": 4890,
      "继": 4891,
      "绩": 4892,
      "绪": 4893,
      "绫": 4894,
      "续": 4895,
      "绮": 4896,
      "绯": 4897,
      "绰": 4898,
      "绳": 4899,
      "维": 4900,
      "绵": 4901,
      "绷": 4902,
      "绸": 4903,
      "综": 4904,
      "绽": 4905,
      "绿": 4906,
      "缀": 4907,
      "缁": 4908,
      "缄": 4909,
      "缅": 4910,
      "缆": 4911,
      "缇": 4912,
      "缈": 4913,
      "缉": 4914,
      "缎": 4915,
      "缓": 4916,
      "缔": 4917,
      "缕": 4918,
      "编": 4919,
      "缘": 4920,
      "缙": 4921,
      "缚": 4922,
      "缜": 4923,
      "缝": 4924,
      "缠": 4925,
      "缢": 4926,
      "缤": 4927,
      "缥": 4928,
      "缦": 4929,
      "缨": 4930,
      "缩": 4931,
      "缪": 4932,
      "缬": 4933,
      "缭": 4934,
      "缮": 4935,
      "缰": 4936,
      "缴": 4937,
      "缶": 4938,
      "缸": 4939,
      "缺": 4940,
      "罂": 4941,
      "罄": 4942,
      "罅": 4943,
      "罈": 4944,
      "罐": 4945,
      "网": 4946,
      "罔": 4947,
      "罕": 4948,
      "罗": 4949,
      "罘": 4950,
      "罚": 4951,
      "罡": 4952,
      "罢": 4953,
      "罩": 4954,
      "罪": 4955,
      "置": 4956,
      "罰": 4957,
      "署": 4958,
      "罷": 4959,
      "罹": 4960,
      "羁": 4961,
      "羅": 4962,
      "羊": 4963,
      "羌": 4964,
      "美": 4965,
      "羔": 4966,
      "羚": 4967,
      "羝": 4968,
      "羞": 4969,
      "羟": 4970,
      "羡": 4971,
      "群": 4972,
      "羧": 4973,
      "義": 4974,
      "羮": 4975,
      "羯": 4976,
      "羰": 4977,
      "羱": 4978,
      "羲": 4979,
      "羸": 4980,
      "羹": 4981,
      "羽": 4982,
      "羿": 4983,
      "翁": 4984,
      "翅": 4985,
      "翊": 4986,
      "翌": 4987,
      "翎": 4988,
      "習": 4989,
      "翔": 4990,
      "翘": 4991,
      "翟": 4992,
      "翠": 4993,
      "翡": 4994,
      "翦": 4995,
      "翩": 4996,
      "翰": 4997,
      "翱": 4998,
      "翳": 4999,
      "翻": 5000,
      "翼": 5001,
      "耀": 5002,
      "老": 5003,
      "考": 5004,
      "耄": 5005,
      "者": 5006,
      "耋": 5007,
      "而": 5008,
      "耍": 5009,
      "耐": 5010,
      "耕": 5011,
      "耗": 5012,
      "耘": 5013,
      "耙": 5014,
      "耜": 5015,
      "耦": 5016,
      "耰": 5017,
      "耳": 5018,
      "耶": 5019,
      "耷": 5020,
      "耸": 5021,
      "耻": 5022,
      "耽": 5023,
      "耿": 5024,
      "聂": 5025,
      "聃": 5026,
      "聆": 5027,
      "聊": 5028,
      "聋": 5029,
      "职": 5030,
      "聒": 5031,
      "联": 5032,
      "聖": 5033,
      "聘": 5034,
      "聚": 5035,
      "聞": 5036,
      "聡": 5037,
      "聩": 5038,
      "聪": 5039,
      "聯": 5040,
      "聱": 5041,
      "聲": 5042,
      "聶": 5043,
      "職": 5044,
      "聽": 5045,
      "聿": 5046,
      "肃": 5047,
      "肄": 5048,
      "肆": 5049,
      "肇": 5050,
      "肉": 5051,
      "肋": 5052,
      "肌": 5053,
      "肓": 5054,
      "肔": 5055,
      "肖": 5056,
      "肘": 5057,
      "肚": 5058,
      "肛": 5059,
      "肝": 5060,
      "肟": 5061,
      "肠": 5062,
      "股": 5063,
      "肢": 5064,
      "肤": 5065,
      "肥": 5066,
      "肩": 5067,
      "肪": 5068,
      "肮": 5069,
      "肯": 5070,
      "肱": 5071,
      "育": 5072,
      "肴": 5073,
      "肺": 5074,
      "肼": 5075,
      "肽": 5076,
      "肾": 5077,
      "肿": 5078,
      "胀": 5079,
      "胁": 5080,
      "胃": 5081,
      "胄": 5082,
      "胆": 5083,
      "背": 5084,
      "胍": 5085,
      "胎": 5086,
      "胖": 5087,
      "胗": 5088,
      "胚": 5089,
      "胛": 5090,
      "胜": 5091,
      "胝": 5092,
      "胞": 5093,
      "胡": 5094,
      "胤": 5095,
      "胥": 5096,
      "胧": 5097,
      "胪": 5098,
      "胫": 5099,
      "胭": 5100,
      "胯": 5101,
      "胰": 5102,
      "胱": 5103,
      "胳": 5104,
      "胶": 5105,
      "胸": 5106,
      "胺": 5107,
      "胼": 5108,
      "能": 5109,
      "脂": 5110,
      "脅": 5111,
      "脆": 5112,
      "脉": 5113,
      "脊": 5114,
      "脍": 5115,
      "脏": 5116,
      "脐": 5117,
      "脑": 5118,
      "脒": 5119,
      "脓": 5120,
      "脔": 5121,
      "脖": 5122,
      "脘": 5123,
      "脚": 5124,
      "脩": 5125,
      "脯": 5126,
      "脱": 5127,
      "脲": 5128,
      "脸": 5129,
      "脾": 5130,
      "腆": 5131,
      "腈": 5132,
      "腊": 5133,
      "腋": 5134,
      "腌": 5135,
      "腐": 5136,
      "腑": 5137,
      "腓": 5138,
      "腔": 5139,
      "腕": 5140,
      "腘": 5141,
      "腙": 5142,
      "腥": 5143,
      "腧": 5144,
      "腩": 5145,
      "腭": 5146,
      "腮": 5147,
      "腰": 5148,
      "腱": 5149,
      "腳": 5150,
      "腴": 5151,
      "腸": 5152,
      "腹": 5153,
      "腺": 5154,
      "腻": 5155,
      "腼": 5156,
      "腾": 5157,
      "腿": 5158,
      "膀": 5159,
      "膈": 5160,
      "膊": 5161,
      "膏": 5162,
      "膑": 5163,
      "膘": 5164,
      "膛": 5165,
      "膜": 5166,
      "膝": 5167,
      "膦": 5168,
      "膨": 5169,
      "膳": 5170,
      "膺": 5171,
      "膻": 5172,
      "臀": 5173,
      "臂": 5174,
      "臃": 5175,
      "臆": 5176,
      "臊": 5177,
      "臣": 5178,
      "臧": 5179,
      "臨": 5180,
      "自": 5181,
      "臬": 5182,
      "臭": 5183,
      "至": 5184,
      "致": 5185,
      "臵": 5186,
      "臻": 5187,
      "臼": 5188,
      "臾": 5189,
      "舀": 5190,
      "舂": 5191,
      "舅": 5192,
      "舆": 5193,
      "與": 5194,
      "興": 5195,
      "舉": 5196,
      "舊": 5197,
      "舌": 5198,
      "舍": 5199,
      "舎": 5200,
      "舐": 5201,
      "舒": 5202,
      "舔": 5203,
      "舛": 5204,
      "舜": 5205,
      "舞": 5206,
      "舟": 5207,
      "航": 5208,
      "舫": 5209,
      "般": 5210,
      "舰": 5211,
      "舱": 5212,
      "舴": 5213,
      "舵": 5214,
      "舶": 5215,
      "舷": 5216,
      "舸": 5217,
      "船": 5218,
      "艇": 5219,
      "艋": 5220,
      "艘": 5221,
      "艦": 5222,
      "艮": 5223,
      "良": 5224,
      "艰": 5225,
      "色": 5226,
      "艳": 5227,
      "艹": 5228,
      "艺": 5229,
      "艾": 5230,
      "节": 5231,
      "芃": 5232,
      "芊": 5233,
      "芋": 5234,
      "芍": 5235,
      "芎": 5236,
      "芒": 5237,
      "芗": 5238,
      "芘": 5239,
      "芙": 5240,
      "芜": 5241,
      "芝": 5242,
      "芠": 5243,
      "芡": 5244,
      "芥": 5245,
      "芦": 5246,
      "芩": 5247,
      "芪": 5248,
      "芫": 5249,
      "芬": 5250,
      "芭": 5251,
      "芮": 5252,
      "芯": 5253,
      "花": 5254,
      "芳": 5255,
      "芷": 5256,
      "芸": 5257,
      "芹": 5258,
      "芼": 5259,
      "芽": 5260,
      "苄": 5261,
      "苇": 5262,
      "苈": 5263,
      "苋": 5264,
      "苌": 5265,
      "苍": 5266,
      "苏": 5267,
      "苑": 5268,
      "苒": 5269,
      "苓": 5270,
      "苔": 5271,
      "苕": 5272,
      "苗": 5273,
      "苛": 5274,
      "苜": 5275,
      "苞": 5276,
      "苟": 5277,
      "苡": 5278,
      "苣": 5279,
      "若": 5280,
      "苦": 5281,
      "苯": 5282,
      "英": 5283,
      "苴": 5284,
      "苷": 5285,
      "苹": 5286,
      "苾": 5287,
      "茁": 5288,
      "茂": 5289,
      "范": 5290,
      "茄": 5291,
      "茅": 5292,
      "茆": 5293,
      "茉": 5294,
      "茎": 5295,
      "茏": 5296,
      "茔": 5297,
      "茗": 5298,
      "茜": 5299,
      "茧": 5300,
      "茨": 5301,
      "茫": 5302,
      "茬": 5303,
      "茯": 5304,
      "茱": 5305,
      "茴": 5306,
      "茵": 5307,
      "茶": 5308,
      "茸": 5309,
      "茹": 5310,
      "茺": 5311,
      "茼": 5312,
      "荀": 5313,
      "荆": 5314,
      "荇": 5315,
      "草": 5316,
      "荌": 5317,
      "荏": 5318,
      "荐": 5319,
      "荑": 5320,
      "荒": 5321,
      "荔": 5322,
      "荚": 5323,
      "荞": 5324,
      "荟": 5325,
      "荠": 5326,
      "荡": 5327,
      "荣": 5328,
      "荤": 5329,
      "荦": 5330,
      "荧": 5331,
      "荨": 5332,
      "荫": 5333,
      "药": 5334,
      "荷": 5335,
      "荸": 5336,
      "荼": 5337,
      "荽": 5338,
      "莆": 5339,
      "莉": 5340,
      "莊": 5341,
      "莎": 5342,
      "莒": 5343,
      "莓": 5344,
      "莘": 5345,
      "莞": 5346,
      "莠": 5347,
      "莨": 5348,
      "莪": 5349,
      "莫": 5350,
      "莱": 5351,
      "莲": 5352,
      "莴": 5353,
      "获": 5354,
      "莹": 5355,
      "莺": 5356,
      "莼": 5357,
      "莽": 5358,
      "菁": 5359,
      "菂": 5360,
      "菅": 5361,
      "菇": 5362,
      "菈": 5363,
      "菉": 5364,
      "菊": 5365,
      "菌": 5366,
      "菏": 5367,
      "菓": 5368,
      "菔": 5369,
      "菖": 5370,
      "菘": 5371,
      "菜": 5372,
      "菟": 5373,
      "菠": 5374,
      "菩": 5375,
      "菪": 5376,
      "華": 5377,
      "菰": 5378,
      "菱": 5379,
      "菲": 5380,
      "菹": 5381,
      "萃": 5382,
      "萄": 5383,
      "萌": 5384,
      "萍": 5385,
      "萎": 5386,
      "萘": 5387,
      "萝": 5388,
      "萤": 5389,
      "营": 5390,
      "萦": 5391,
      "萧": 5392,
      "萨": 5393,
      "萬": 5394,
      "萱": 5395,
      "萼": 5396,
      "落": 5397,
      "葆": 5398,
      "葉": 5399,
      "葑": 5400,
      "著": 5401,
      "葚": 5402,
      "葛": 5403,
      "葡": 5404,
      "董": 5405,
      "葩": 5406,
      "葫": 5407,
      "葬": 5408,
      "葭": 5409,
      "葱": 5410,
      "葳": 5411,
      "葵": 5412,
      "葶": 5413,
      "葺": 5414,
      "蒂": 5415,
      "蒋": 5416,
      "蒌": 5417,
      "蒍": 5418,
      "蒙": 5419,
      "蒜": 5420,
      "蒟": 5421,
      "蒡": 5422,
      "蒯": 5423,
      "蒲": 5424,
      "蒸": 5425,
      "蒹": 5426,
      "蒻": 5427,
      "蒿": 5428,
      "蓄": 5429,
      "蓉": 5430,
      "蓋": 5431,
      "蓍": 5432,
      "蓏": 5433,
      "蓑": 5434,
      "蓓": 5435,
      "蓖": 5436,
      "蓝": 5437,
      "蓟": 5438,
      "蓥": 5439,
      "蓦": 5440,
      "蓬": 5441,
      "蓮": 5442,
      "蓼": 5443,
      "蔌": 5444,
      "蔑": 5445,
      "蔓": 5446,
      "蔗": 5447,
      "蔚": 5448,
      "蔡": 5449,
      "蔣": 5450,
      "蔥": 5451,
      "蔫": 5452,
      "蔬": 5453,
      "蔵": 5454,
      "蔷": 5455,
      "蔻": 5456,
      "蔼": 5457,
      "蔽": 5458,
      "蕃": 5459,
      "蕉": 5460,
      "蕊": 5461,
      "蕞": 5462,
      "蕨": 5463,
      "蕲": 5464,
      "蕴": 5465,
      "蕻": 5466,
      "蕾": 5467,
      "薄": 5468,
      "薅": 5469,
      "薇": 5470,
      "薙": 5471,
      "薛": 5472,
      "薦": 5473,
      "薪": 5474,
      "薫": 5475,
      "薮": 5476,
      "薯": 5477,
      "薰": 5478,
      "薹": 5479,
      "藁": 5480,
      "藉": 5481,
      "藍": 5482,
      "藏": 5483,
      "藓": 5484,
      "藕": 5485,
      "藜": 5486,
      "藝": 5487,
      "藤": 5488,
      "藥": 5489,
      "藩": 5490,
      "藻": 5491,
      "藿": 5492,
      "蘅": 5493,
      "蘑": 5494,
      "蘭": 5495,
      "蘸": 5496,
      "蘼": 5497,
      "虎": 5498,
      "虏": 5499,
      "虐": 5500,
      "虑": 5501,
      "虔": 5502,
      "虚": 5503,
      "虛": 5504,
      "虞": 5505,
      "號": 5506,
      "虣": 5507,
      "虫": 5508,
      "虬": 5509,
      "虱": 5510,
      "虹": 5511,
      "虺": 5512,
      "虽": 5513,
      "虾": 5514,
      "蚀": 5515,
      "蚁": 5516,
      "蚂": 5517,
      "蚊": 5518,
      "蚋": 5519,
      "蚌": 5520,
      "蚓": 5521,
      "蚕": 5522,
      "蚜": 5523,
      "蚝": 5524,
      "蚣": 5525,
      "蚤": 5526,
      "蚩": 5527,
      "蚪": 5528,
      "蚯": 5529,
      "蚱": 5530,
      "蚵": 5531,
      "蚺": 5532,
      "蛀": 5533,
      "蛄": 5534,
      "蛆": 5535,
      "蛇": 5536,
      "蛉": 5537,
      "蛊": 5538,
      "蛋": 5539,
      "蛎": 5540,
      "蛏": 5541,
      "蛐": 5542,
      "蛔": 5543,
      "蛙": 5544,
      "蛛": 5545,
      "蛞": 5546,
      "蛟": 5547,
      "蛤": 5548,
      "蛮": 5549,
      "蛰": 5550,
      "蛲": 5551,
      "蛳": 5552,
      "蛹": 5553,
      "蛾": 5554,
      "蜀": 5555,
      "蜂": 5556,
      "蜃": 5557,
      "蜇": 5558,
      "蜈": 5559,
      "蜉": 5560,
      "蜊": 5561,
      "蜍": 5562,
      "蜒": 5563,
      "蜓": 5564,
      "蜕": 5565,
      "蜗": 5566,
      "蜘": 5567,
      "蜚": 5568,
      "蜜": 5569,
      "蜡": 5570,
      "蜣": 5571,
      "蜥": 5572,
      "蜱": 5573,
      "蜴": 5574,
      "蜷": 5575,
      "蜻": 5576,
      "蜿": 5577,
      "蝇": 5578,
      "蝈": 5579,
      "蝉": 5580,
      "蝌": 5581,
      "蝎": 5582,
      "蝓": 5583,
      "蝗": 5584,
      "蝙": 5585,
      "蝠": 5586,
      "蝣": 5587,
      "蝮": 5588,
      "蝰": 5589,
      "蝴": 5590,
      "蝶": 5591,
      "蝼": 5592,
      "螂": 5593,
      "螃": 5594,
      "螅": 5595,
      "螈": 5596,
      "融": 5597,
      "螚": 5598,
      "螣": 5599,
      "螨": 5600,
      "螯": 5601,
      "螳": 5602,
      "螺": 5603,
      "蟀": 5604,
      "蟆": 5605,
      "蟋": 5606,
      "蟑": 5607,
      "蟒": 5608,
      "蟠": 5609,
      "蟲": 5610,
      "蟹": 5611,
      "蟾": 5612,
      "蠕": 5613,
      "蠡": 5614,
      "蠢": 5615,
      "蠣": 5616,
      "蠹": 5617,
      "蠻": 5618,
      "血": 5619,
      "衅": 5620,
      "衆": 5621,
      "行": 5622,
      "衍": 5623,
      "術": 5624,
      "衔": 5625,
      "街": 5626,
      "衙": 5627,
      "衛": 5628,
      "衝": 5629,
      "衞": 5630,
      "衡": 5631,
      "衢": 5632,
      "衣": 5633,
      "补": 5634,
      "表": 5635,
      "衩": 5636,
      "衫": 5637,
      "衬": 5638,
      "衮": 5639,
      "衰": 5640,
      "衷": 5641,
      "衹": 5642,
      "衾": 5643,
      "衿": 5644,
      "袁": 5645,
      "袂": 5646,
      "袄": 5647,
      "袅": 5648,
      "袈": 5649,
      "袋": 5650,
      "袍": 5651,
      "袒": 5652,
      "袖": 5653,
      "袜": 5654,
      "袤": 5655,
      "被": 5656,
      "袭": 5657,
      "袱": 5658,
      "裁": 5659,
      "裂": 5660,
      "装": 5661,
      "裆": 5662,
      "裏": 5663,
      "裔": 5664,
      "裕": 5665,
      "裘": 5666,
      "裙": 5667,
      "補": 5668,
      "裝": 5669,
      "裟": 5670,
      "裡": 5671,
      "裤": 5672,
      "裨": 5673,
      "裱": 5674,
      "裳": 5675,
      "裴": 5676,
      "裸": 5677,
      "裹": 5678,
      "裾": 5679,
      "褂": 5680,
      "複": 5681,
      "褐": 5682,
      "褒": 5683,
      "褓": 5684,
      "褔": 5685,
      "褙": 5686,
      "褚": 5687,
      "褛": 5688,
      "褥": 5689,
      "褪": 5690,
      "褴": 5691,
      "褶": 5692,
      "襁": 5693,
      "襄": 5694,
      "襞": 5695,
      "襟": 5696,
      "襦": 5697,
      "襯": 5698,
      "西": 5699,
      "要": 5700,
      "覃": 5701,
      "覆": 5702,
      "見": 5703,
      "規": 5704,
      "視": 5705,
      "覚": 5706,
      "観": 5707,
      "覺": 5708,
      "觀": 5709,
      "见": 5710,
      "观": 5711,
      "规": 5712,
      "觅": 5713,
      "视": 5714,
      "览": 5715,
      "觉": 5716,
      "觊": 5717,
      "觎": 5718,
      "觐": 5719,
      "觑": 5720,
      "角": 5721,
      "觞": 5722,
      "解": 5723,
      "触": 5724,
      "觭": 5725,
      "觯": 5726,
      "觸": 5727,
      "言": 5728,
      "訇": 5729,
      "計": 5730,
      "討": 5731,
      "訏": 5732,
      "訓": 5733,
      "記": 5734,
      "訚": 5735,
      "訪": 5736,
      "設": 5737,
      "許": 5738,
      "訴": 5739,
      "註": 5740,
      "証": 5741,
      "評": 5742,
      "詞": 5743,
      "詠": 5744,
      "試": 5745,
      "詩": 5746,
      "詰": 5747,
      "話": 5748,
      "該": 5749,
      "詳": 5750,
      "詹": 5751,
      "誇": 5752,
      "誉": 5753,
      "認": 5754,
      "誓": 5755,
      "誕": 5756,
      "語": 5757,
      "誤": 5758,
      "說": 5759,
      "説": 5760,
      "読": 5761,
      "誰": 5762,
      "課": 5763,
      "調": 5764,
      "談": 5765,
      "請": 5766,
      "論": 5767,
      "諧": 5768,
      "諸": 5769,
      "謎": 5770,
      "講": 5771,
      "謝": 5772,
      "謬": 5773,
      "謳": 5774,
      "證": 5775,
      "識": 5776,
      "譚": 5777,
      "警": 5778,
      "譬": 5779,
      "譯": 5780,
      "譲": 5781,
      "護": 5782,
      "讀": 5783,
      "變": 5784,
      "讐": 5785,
      "讓": 5786,
      "计": 5787,
      "订": 5788,
      "讣": 5789,
      "认": 5790,
      "讥": 5791,
      "讧": 5792,
      "讨": 5793,
      "让": 5794,
      "讪": 5795,
      "讫": 5796,
      "讬": 5797,
      "训": 5798,
      "议": 5799,
      "讯": 5800,
      "记": 5801,
      "讲": 5802,
      "讳": 5803,
      "讴": 5804,
      "讶": 5805,
      "讷": 5806,
      "许": 5807,
      "讹": 5808,
      "论": 5809,
      "讼": 5810,
      "讽": 5811,
      "设": 5812,
      "访": 5813,
      "诀": 5814,
      "证": 5815,
      "诂": 5816,
      "诃": 5817,
      "评": 5818,
      "诅": 5819,
      "识": 5820,
      "诈": 5821,
      "诉": 5822,
      "诊": 5823,
      "诋": 5824,
      "诌": 5825,
      "词": 5826,
      "诏": 5827,
      "诐": 5828,
      "译": 5829,
      "诒": 5830,
      "试": 5831,
      "诗": 5832,
      "诘": 5833,
      "诙": 5834,
      "诚": 5835,
      "诛": 5836,
      "话": 5837,
      "诞": 5838,
      "诟": 5839,
      "诠": 5840,
      "诡": 5841,
      "询": 5842,
      "诣": 5843,
      "该": 5844,
      "详": 5845,
      "诧": 5846,
      "诨": 5847,
      "诩": 5848,
      "诫": 5849,
      "诬": 5850,
      "语": 5851,
      "误": 5852,
      "诱": 5853,
      "诲": 5854,
      "说": 5855,
      "诵": 5856,
      "诶": 5857,
      "请": 5858,
      "诸": 5859,
      "诹": 5860,
      "诺": 5861,
      "读": 5862,
      "诽": 5863,
      "课": 5864,
      "诿": 5865,
      "谀": 5866,
      "谁": 5867,
      "调": 5868,
      "谄": 5869,
      "谅": 5870,
      "谆": 5871,
      "谈": 5872,
      "谊": 5873,
      "谋": 5874,
      "谌": 5875,
      "谍": 5876,
      "谎": 5877,
      "谏": 5878,
      "谐": 5879,
      "谑": 5880,
      "谒": 5881,
      "谓": 5882,
      "谔": 5883,
      "谕": 5884,
      "谗": 5885,
      "谙": 5886,
      "谚": 5887,
      "谛": 5888,
      "谜": 5889,
      "谝": 5890,
      "谟": 5891,
      "谠": 5892,
      "谡": 5893,
      "谢": 5894,
      "谣": 5895,
      "谤": 5896,
      "谥": 5897,
      "谦": 5898,
      "谧": 5899,
      "谨": 5900,
      "谩": 5901,
      "谪": 5902,
      "谬": 5903,
      "谭": 5904,
      "谯": 5905,
      "谱": 5906,
      "谲": 5907,
      "谴": 5908,
      "谶": 5909,
      "谷": 5910,
      "豁": 5911,
      "豆": 5912,
      "豇": 5913,
      "豉": 5914,
      "豌": 5915,
      "豐": 5916,
      "豕": 5917,
      "豚": 5918,
      "象": 5919,
      "豢": 5920,
      "豪": 5921,
      "豫": 5922,
      "豹": 5923,
      "貂": 5924,
      "貅": 5925,
      "貉": 5926,
      "貌": 5927,
      "貔": 5928,
      "貘": 5929,
      "貛": 5930,
      "貞": 5931,
      "負": 5932,
      "貧": 5933,
      "貨": 5934,
      "販": 5935,
      "責": 5936,
      "貴": 5937,
      "買": 5938,
      "費": 5939,
      "貼": 5940,
      "貽": 5941,
      "賞": 5942,
      "賢": 5943,
      "賦": 5944,
      "質": 5945,
      "賸": 5946,
      "購": 5947,
      "贔": 5948,
      "贖": 5949,
      "贝": 5950,
      "贞": 5951,
      "负": 5952,
      "贡": 5953,
      "财": 5954,
      "责": 5955,
      "贤": 5956,
      "败": 5957,
      "账": 5958,
      "货": 5959,
      "质": 5960,
      "贩": 5961,
      "贪": 5962,
      "贫": 5963,
      "贬": 5964,
      "购": 5965,
      "贮": 5966,
      "贯": 5967,
      "贰": 5968,
      "贱": 5969,
      "贲": 5970,
      "贴": 5971,
      "贵": 5972,
      "贷": 5973,
      "贸": 5974,
      "费": 5975,
      "贺": 5976,
      "贻": 5977,
      "贼": 5978,
      "贾": 5979,
      "贿": 5980,
      "赁": 5981,
      "赂": 5982,
      "赃": 5983,
      "资": 5984,
      "赅": 5985,
      "赈": 5986,
      "赊": 5987,
      "赋": 5988,
      "赌": 5989,
      "赍": 5990,
      "赎": 5991,
      "赏": 5992,
      "赐": 5993,
      "赓": 5994,
      "赔": 5995,
      "赖": 5996,
      "赘": 5997,
      "赚": 5998,
      "赛": 5999,
      "赝": 6000,
      "赞": 6001,
      "赠": 6002,
      "赡": 6003,
      "赢": 6004,
      "赣": 6005,
      "赤": 6006,
      "赦": 6007,
      "赧": 6008,
      "赫": 6009,
      "赭": 6010,
      "走": 6011,
      "赴": 6012,
      "赵": 6013,
      "赶": 6014,
      "起": 6015,
      "趁": 6016,
      "超": 6017,
      "越": 6018,
      "趋": 6019,
      "趟": 6020,
      "趣": 6021,
      "足": 6022,
      "趴": 6023,
      "趸": 6024,
      "趺": 6025,
      "趾": 6026,
      "跃": 6027,
      "跄": 6028,
      "跆": 6029,
      "跋": 6030,
      "跌": 6031,
      "跎": 6032,
      "跏": 6033,
      "跑": 6034,
      "跖": 6035,
      "跗": 6036,
      "跚": 6037,
      "跛": 6038,
      "距": 6039,
      "跟": 6040,
      "跤": 6041,
      "跨": 6042,
      "跪": 6043,
      "跫": 6044,
      "跬": 6045,
      "路": 6046,
      "跳": 6047,
      "践": 6048,
      "跶": 6049,
      "跷": 6050,
      "跺": 6051,
      "跻": 6052,
      "踆": 6053,
      "踉": 6054,
      "踊": 6055,
      "踌": 6056,
      "踏": 6057,
      "踐": 6058,
      "踝": 6059,
      "踞": 6060,
      "踢": 6061,
      "踩": 6062,
      "踪": 6063,
      "踮": 6064,
      "踯": 6065,
      "踱": 6066,
      "踵": 6067,
      "踹": 6068,
      "踽": 6069,
      "蹂": 6070,
      "蹄": 6071,
      "蹇": 6072,
      "蹈": 6073,
      "蹉": 6074,
      "蹊": 6075,
      "蹋": 6076,
      "蹑": 6077,
      "蹒": 6078,
      "蹙": 6079,
      "蹚": 6080,
      "蹦": 6081,
      "蹩": 6082,
      "蹬": 6083,
      "蹭": 6084,
      "蹲": 6085,
      "蹴": 6086,
      "蹶": 6087,
      "蹼": 6088,
      "蹿": 6089,
      "躁": 6090,
      "躅": 6091,
      "躇": 6092,
      "躍": 6093,
      "躏": 6094,
      "躙": 6095,
      "躧": 6096,
      "身": 6097,
      "躬": 6098,
      "躯": 6099,
      "躲": 6100,
      "躺": 6101,
      "車": 6102,
      "軍": 6103,
      "転": 6104,
      "軽": 6105,
      "較": 6106,
      "載": 6107,
      "輔": 6108,
      "輕": 6109,
      "輝": 6110,
      "輩": 6111,
      "輯": 6112,
      "轉": 6113,
      "车": 6114,
      "轧": 6115,
      "轨": 6116,
      "轩": 6117,
      "轫": 6118,
      "转": 6119,
      "轭": 6120,
      "轮": 6121,
      "软": 6122,
      "轰": 6123,
      "轱": 6124,
      "轲": 6125,
      "轴": 6126,
      "轶": 6127,
      "轸": 6128,
      "轻": 6129,
      "轼": 6130,
      "载": 6131,
      "轿": 6132,
      "较": 6133,
      "辄": 6134,
      "辅": 6135,
      "辆": 6136,
      "辇": 6137,
      "辈": 6138,
      "辉": 6139,
      "辊": 6140,
      "辍": 6141,
      "辎": 6142,
      "辐": 6143,
      "辑": 6144,
      "输": 6145,
      "辔": 6146,
      "辕": 6147,
      "辖": 6148,
      "辗": 6149,
      "辘": 6150,
      "辙": 6151,
      "辛": 6152,
      "辜": 6153,
      "辞": 6154,
      "辟": 6155,
      "辣": 6156,
      "辦": 6157,
      "辨": 6158,
      "辩": 6159,
      "辫": 6160,
      "辭": 6161,
      "辰": 6162,
      "辱": 6163,
      "農": 6164,
      "边": 6165,
      "辺": 6166,
      "辻": 6167,
      "込": 6168,
      "辽": 6169,
      "达": 6170,
      "迁": 6171,
      "迂": 6172,
      "迄": 6173,
      "迅": 6174,
      "过": 6175,
      "迈": 6176,
      "迎": 6177,
      "运": 6178,
      "近": 6179,
      "返": 6180,
      "还": 6181,
      "这": 6182,
      "进": 6183,
      "远": 6184,
      "违": 6185,
      "连": 6186,
      "迟": 6187,
      "迢": 6188,
      "迥": 6189,
      "迦": 6190,
      "迨": 6191,
      "迩": 6192,
      "迪": 6193,
      "迫": 6194,
      "迭": 6195,
      "述": 6196,
      "迷": 6197,
      "迸": 6198,
      "迹": 6199,
      "追": 6200,
      "退": 6201,
      "送": 6202,
      "适": 6203,
      "逃": 6204,
      "逅": 6205,
      "逆": 6206,
      "选": 6207,
      "逊": 6208,
      "逍": 6209,
      "透": 6210,
      "逐": 6211,
      "逑": 6212,
      "递": 6213,
      "途": 6214,
      "逗": 6215,
      "這": 6216,
      "通": 6217,
      "逛": 6218,
      "逝": 6219,
      "逞": 6220,
      "速": 6221,
      "造": 6222,
      "逢": 6223,
      "連": 6224,
      "逮": 6225,
      "逯": 6226,
      "週": 6227,
      "進": 6228,
      "逵": 6229,
      "逸": 6230,
      "逺": 6231,
      "逻": 6232,
      "逼": 6233,
      "逾": 6234,
      "遁": 6235,
      "遂": 6236,
      "遇": 6237,
      "遊": 6238,
      "運": 6239,
      "遍": 6240,
      "過": 6241,
      "遏": 6242,
      "遐": 6243,
      "遑": 6244,
      "遒": 6245,
      "道": 6246,
      "達": 6247,
      "違": 6248,
      "遗": 6249,
      "遙": 6250,
      "遛": 6251,
      "遠": 6252,
      "遢": 6253,
      "遣": 6254,
      "遥": 6255,
      "遨": 6256,
      "適": 6257,
      "遭": 6258,
      "遮": 6259,
      "遲": 6260,
      "遴": 6261,
      "遵": 6262,
      "選": 6263,
      "遽": 6264,
      "避": 6265,
      "邀": 6266,
      "邂": 6267,
      "邃": 6268,
      "還": 6269,
      "邈": 6270,
      "邊": 6271,
      "邋": 6272,
      "邏": 6273,
      "邑": 6274,
      "邓": 6275,
      "邝": 6276,
      "邢": 6277,
      "那": 6278,
      "邦": 6279,
      "邨": 6280,
      "邪": 6281,
      "邬": 6282,
      "邮": 6283,
      "邯": 6284,
      "邱": 6285,
      "邵": 6286,
      "邸": 6287,
      "邹": 6288,
      "邺": 6289,
      "邻": 6290,
      "郁": 6291,
      "郊": 6292,
      "郎": 6293,
      "郑": 6294,
      "郗": 6295,
      "郘": 6296,
      "郝": 6297,
      "郡": 6298,
      "郢": 6299,
      "郦": 6300,
      "部": 6301,
      "郫": 6302,
      "郭": 6303,
      "郸": 6304,
      "都": 6305,
      "鄂": 6306,
      "鄉": 6307,
      "鄙": 6308,
      "鄣": 6309,
      "鄧": 6310,
      "鄭": 6311,
      "鄱": 6312,
      "酉": 6313,
      "酊": 6314,
      "酋": 6315,
      "酌": 6316,
      "配": 6317,
      "酐": 6318,
      "酒": 6319,
      "酔": 6320,
      "酗": 6321,
      "酚": 6322,
      "酝": 6323,
      "酢": 6324,
      "酣": 6325,
      "酤": 6326,
      "酥": 6327,
      "酩": 6328,
      "酪": 6329,
      "酬": 6330,
      "酮": 6331,
      "酯": 6332,
      "酰": 6333,
      "酱": 6334,
      "酵": 6335,
      "酶": 6336,
      "酷": 6337,
      "酸": 6338,
      "酿": 6339,
      "醅": 6340,
      "醇": 6341,
      "醉": 6342,
      "醋": 6343,
      "醍": 6344,
      "醐": 6345,
      "醒": 6346,
      "醚": 6347,
      "醛": 6348,
      "醜": 6349,
      "醢": 6350,
      "醤": 6351,
      "醪": 6352,
      "醮": 6353,
      "醯": 6354,
      "醴": 6355,
      "醵": 6356,
      "醺": 6357,
      "釆": 6358,
      "采": 6359,
      "釉": 6360,
      "释": 6361,
      "釋": 6362,
      "里": 6363,
      "重": 6364,
      "野": 6365,
      "量": 6366,
      "金": 6367,
      "釘": 6368,
      "釚": 6369,
      "釜": 6370,
      "釣": 6371,
      "鈔": 6372,
      "鉄": 6373,
      "鉊": 6374,
      "鉴": 6375,
      "銀": 6376,
      "銓": 6377,
      "銮": 6378,
      "銷": 6379,
      "鋆": 6380,
      "鋒": 6381,
      "鋪": 6382,
      "鋼": 6383,
      "錄": 6384,
      "錢": 6385,
      "錬": 6386,
      "錯": 6387,
      "録": 6388,
      "鍊": 6389,
      "鍛": 6390,
      "鍵": 6391,
      "鎏": 6392,
      "鎮": 6393,
      "鏖": 6394,
      "鏡": 6395,
      "鑑": 6396,
      "鑫": 6397,
      "针": 6398,
      "钉": 6399,
      "钊": 6400,
      "钍": 6401,
      "钎": 6402,
      "钏": 6403,
      "钑": 6404,
      "钒": 6405,
      "钓": 6406,
      "钕": 6407,
      "钗": 6408,
      "钙": 6409,
      "钛": 6410,
      "钜": 6411,
      "钝": 6412,
      "钞": 6413,
      "钟": 6414,
      "钠": 6415,
      "钡": 6416,
      "钢": 6417,
      "钣": 6418,
      "钥": 6419,
      "钦": 6420,
      "钧": 6421,
      "钨": 6422,
      "钩": 6423,
      "钬": 6424,
      "钮": 6425,
      "钯": 6426,
      "钰": 6427,
      "钱": 6428,
      "钳": 6429,
      "钴": 6430,
      "钵": 6431,
      "钺": 6432,
      "钻": 6433,
      "钼": 6434,
      "钽": 6435,
      "钾": 6436,
      "钿": 6437,
      "铁": 6438,
      "铂": 6439,
      "铃": 6440,
      "铅": 6441,
      "铆": 6442,
      "铋": 6443,
      "铎": 6444,
      "铐": 6445,
      "铑": 6446,
      "铖": 6447,
      "铛": 6448,
      "铜": 6449,
      "铝": 6450,
      "铠": 6451,
      "铢": 6452,
      "铣": 6453,
      "铤": 6454,
      "铨": 6455,
      "铬": 6456,
      "铭": 6457,
      "铮": 6458,
      "铯": 6459,
      "铰": 6460,
      "铱": 6461,
      "铲": 6462,
      "铳": 6463,
      "铵": 6464,
      "银": 6465,
      "铸": 6466,
      "铺": 6467,
      "链": 6468,
      "铿": 6469,
      "销": 6470,
      "锁": 6471,
      "锂": 6472,
      "锃": 6473,
      "锄": 6474,
      "锅": 6475,
      "锈": 6476,
      "锉": 6477,
      "锋": 6478,
      "锌": 6479,
      "锏": 6480,
      "锐": 6481,
      "锑": 6482,
      "锒": 6483,
      "锖": 6484,
      "锗": 6485,
      "错": 6486,
      "锚": 6487,
      "锜": 6488,
      "锝": 6489,
      "锡": 6490,
      "锢": 6491,
      "锣": 6492,
      "锤": 6493,
      "锥": 6494,
      "锦": 6495,
      "锭": 6496,
      "键": 6497,
      "锯": 6498,
      "锰": 6499,
      "锲": 6500,
      "锵": 6501,
      "锶": 6502,
      "锹": 6503,
      "锺": 6504,
      "锻": 6505,
      "镀": 6506,
      "镁": 6507,
      "镂": 6508,
      "镇": 6509,
      "镈": 6510,
      "镉": 6511,
      "镊": 6512,
      "镌": 6513,
      "镍": 6514,
      "镐": 6515,
      "镑": 6516,
      "镒": 6517,
      "镓": 6518,
      "镖": 6519,
      "镚": 6520,
      "镜": 6521,
      "镠": 6522,
      "镣": 6523,
      "镪": 6524,
      "镭": 6525,
      "镯": 6526,
      "镰": 6527,
      "镲": 6528,
      "镳": 6529,
      "镶": 6530,
      "長": 6531,
      "长": 6532,
      "門": 6533,
      "閉": 6534,
      "開": 6535,
      "間": 6536,
      "閔": 6537,
      "関": 6538,
      "閨": 6539,
      "閱": 6540,
      "闇": 6541,
      "闓": 6542,
      "闘": 6543,
      "關": 6544,
      "闡": 6545,
      "门": 6546,
      "闩": 6547,
      "闪": 6548,
      "闫": 6549,
      "闬": 6550,
      "闭": 6551,
      "问": 6552,
      "闯": 6553,
      "闰": 6554,
      "闱": 6555,
      "闲": 6556,
      "间": 6557,
      "闵": 6558,
      "闷": 6559,
      "闸": 6560,
      "闹": 6561,
      "闺": 6562,
      "闻": 6563,
      "闽": 6564,
      "闾": 6565,
      "阀": 6566,
      "阁": 6567,
      "阂": 6568,
      "阅": 6569,
      "阈": 6570,
      "阉": 6571,
      "阋": 6572,
      "阎": 6573,
      "阏": 6574,
      "阐": 6575,
      "阑": 6576,
      "阔": 6577,
      "阕": 6578,
      "阖": 6579,
      "阗": 6580,
      "阙": 6581,
      "阚": 6582,
      "阜": 6583,
      "队": 6584,
      "阪": 6585,
      "阮": 6586,
      "阱": 6587,
      "防": 6588,
      "阳": 6589,
      "阴": 6590,
      "阵": 6591,
      "阶": 6592,
      "阻": 6593,
      "阿": 6594,
      "陀": 6595,
      "陂": 6596,
      "附": 6597,
      "际": 6598,
      "陆": 6599,
      "陇": 6600,
      "陈": 6601,
      "陋": 6602,
      "陌": 6603,
      "降": 6604,
      "限": 6605,
      "陕": 6606,
      "陛": 6607,
      "陞": 6608,
      "陡": 6609,
      "院": 6610,
      "除": 6611,
      "陨": 6612,
      "险": 6613,
      "陪": 6614,
      "陬": 6615,
      "陰": 6616,
      "陲": 6617,
      "陳": 6618,
      "陵": 6619,
      "陶": 6620,
      "陷": 6621,
      "陸": 6622,
      "険": 6623,
      "陽": 6624,
      "隅": 6625,
      "隆": 6626,
      "隈": 6627,
      "隊": 6628,
      "隋": 6629,
      "隍": 6630,
      "階": 6631,
      "随": 6632,
      "隐": 6633,
      "隔": 6634,
      "隘": 6635,
      "隙": 6636,
      "際": 6637,
      "障": 6638,
      "隠": 6639,
      "隧": 6640,
      "隨": 6641,
      "隰": 6642,
      "隱": 6643,
      "隴": 6644,
      "隶": 6645,
      "隼": 6646,
      "隽": 6647,
      "难": 6648,
      "雀": 6649,
      "雁": 6650,
      "雄": 6651,
      "雅": 6652,
      "集": 6653,
      "雇": 6654,
      "雉": 6655,
      "雌": 6656,
      "雍": 6657,
      "雎": 6658,
      "雏": 6659,
      "雑": 6660,
      "雕": 6661,
      "雖": 6662,
      "雛": 6663,
      "雜": 6664,
      "雠": 6665,
      "離": 6666,
      "難": 6667,
      "雨": 6668,
      "雪": 6669,
      "雫": 6670,
      "雯": 6671,
      "雲": 6672,
      "雳": 6673,
      "零": 6674,
      "雷": 6675,
      "雹": 6676,
      "電": 6677,
      "雾": 6678,
      "需": 6679,
      "霁": 6680,
      "霄": 6681,
      "霆": 6682,
      "震": 6683,
      "霉": 6684,
      "霊": 6685,
      "霍": 6686,
      "霎": 6687,
      "霏": 6688,
      "霓": 6689,
      "霖": 6690,
      "霜": 6691,
      "霞": 6692,
      "霭": 6693,
      "露": 6694,
      "霸": 6695,
      "霹": 6696,
      "霾": 6697,
      "靄": 6698,
      "靈": 6699,
      "青": 6700,
      "靓": 6701,
      "靖": 6702,
      "静": 6703,
      "靛": 6704,
      "非": 6705,
      "靠": 6706,
      "靡": 6707,
      "面": 6708,
      "靥": 6709,
      "革": 6710,
      "靴": 6711,
      "靶": 6712,
      "靺": 6713,
      "靼": 6714,
      "鞅": 6715,
      "鞋": 6716,
      "鞍": 6717,
      "鞑": 6718,
      "鞘": 6719,
      "鞠": 6720,
      "鞣": 6721,
      "鞭": 6722,
      "鞮": 6723,
      "鞯": 6724,
      "韡": 6725,
      "韦": 6726,
      "韧": 6727,
      "韩": 6728,
      "韫": 6729,
      "韬": 6730,
      "韭": 6731,
      "音": 6732,
      "韵": 6733,
      "韶": 6734,
      "韻": 6735,
      "韾": 6736,
      "響": 6737,
      "頁": 6738,
      "順": 6739,
      "須": 6740,
      "預": 6741,
      "頔": 6742,
      "領": 6743,
      "頭": 6744,
      "頻": 6745,
      "頼": 6746,
      "題": 6747,
      "顒": 6748,
      "顔": 6749,
      "顛": 6750,
      "類": 6751,
      "顧": 6752,
      "顯": 6753,
      "页": 6754,
      "顶": 6755,
      "顷": 6756,
      "项": 6757,
      "顺": 6758,
      "须": 6759,
      "顽": 6760,
      "顾": 6761,
      "顿": 6762,
      "颁": 6763,
      "颂": 6764,
      "预": 6765,
      "颅": 6766,
      "领": 6767,
      "颇": 6768,
      "颈": 6769,
      "颉": 6770,
      "颊": 6771,
      "颌": 6772,
      "颍": 6773,
      "颐": 6774,
      "频": 6775,
      "颓": 6776,
      "颔": 6777,
      "颖": 6778,
      "颗": 6779,
      "题": 6780,
      "颙": 6781,
      "颚": 6782,
      "颜": 6783,
      "额": 6784,
      "颞": 6785,
      "颠": 6786,
      "颢": 6787,
      "颤": 6788,
      "颦": 6789,
      "颧": 6790,
      "風": 6791,
      "颿": 6792,
      "风": 6793,
      "飏": 6794,
      "飒": 6795,
      "飓": 6796,
      "飕": 6797,
      "飘": 6798,
      "飙": 6799,
      "飚": 6800,
      "飞": 6801,
      "食": 6802,
      "飨": 6803,
      "飯": 6804,
      "飾": 6805,
      "養": 6806,
      "餐": 6807,
      "餘": 6808,
      "館": 6809,
      "餮": 6810,
      "餵": 6811,
      "饕": 6812,
      "饤": 6813,
      "饥": 6814,
      "饨": 6815,
      "饪": 6816,
      "饬": 6817,
      "饭": 6818,
      "饮": 6819,
      "饯": 6820,
      "饰": 6821,
      "饱": 6822,
      "饲": 6823,
      "饳": 6824,
      "饴": 6825,
      "饵": 6826,
      "饶": 6827,
      "饷": 6828,
      "饺": 6829,
      "饼": 6830,
      "饽": 6831,
      "饿": 6832,
      "馀": 6833,
      "馁": 6834,
      "馃": 6835,
      "馄": 6836,
      "馅": 6837,
      "馆": 6838,
      "馈": 6839,
      "馉": 6840,
      "馊": 6841,
      "馋": 6842,
      "馍": 6843,
      "馏": 6844,
      "馐": 6845,
      "馒": 6846,
      "馓": 6847,
      "馔": 6848,
      "馕": 6849,
      "首": 6850,
      "馗": 6851,
      "香": 6852,
      "馥": 6853,
      "馨": 6854,
      "馬": 6855,
      "馴": 6856,
      "駆": 6857,
      "駮": 6858,
      "駿": 6859,
      "騎": 6860,
      "騙": 6861,
      "驗": 6862,
      "马": 6863,
      "驭": 6864,
      "驮": 6865,
      "驯": 6866,
      "驰": 6867,
      "驱": 6868,
      "驳": 6869,
      "驴": 6870,
      "驶": 6871,
      "驷": 6872,
      "驹": 6873,
      "驻": 6874,
      "驼": 6875,
      "驾": 6876,
      "驿": 6877,
      "骁": 6878,
      "骂": 6879,
      "骄": 6880,
      "骅": 6881,
      "骆": 6882,
      "骇": 6883,
      "骈": 6884,
      "骊": 6885,
      "骋": 6886,
      "验": 6887,
      "骏": 6888,
      "骐": 6889,
      "骑": 6890,
      "骗": 6891,
      "骘": 6892,
      "骙": 6893,
      "骚": 6894,
      "骛": 6895,
      "骜": 6896,
      "骞": 6897,
      "骠": 6898,
      "骡": 6899,
      "骤": 6900,
      "骥": 6901,
      "骧": 6902,
      "骨": 6903,
      "骭": 6904,
      "骰": 6905,
      "骶": 6906,
      "骷": 6907,
      "骸": 6908,
      "骼": 6909,
      "髀": 6910,
      "髁": 6911,
      "髂": 6912,
      "髅": 6913,
      "髋": 6914,
      "髌": 6915,
      "髓": 6916,
      "體": 6917,
      "高": 6918,
      "髦": 6919,
      "髯": 6920,
      "髻": 6921,
      "鬃": 6922,
      "鬓": 6923,
      "鬟": 6924,
      "鬣": 6925,
      "鬻": 6926,
      "鬼": 6927,
      "魁": 6928,
      "魂": 6929,
      "魃": 6930,
      "魄": 6931,
      "魅": 6932,
      "魇": 6933,
      "魈": 6934,
      "魉": 6935,
      "魍": 6936,
      "魏": 6937,
      "魑": 6938,
      "魔": 6939,
      "魚": 6940,
      "魯": 6941,
      "魷": 6942,
      "鮟": 6943,
      "鯉": 6944,
      "鯭": 6945,
      "鱇": 6946,
      "鱼": 6947,
      "鱿": 6948,
      "鲁": 6949,
      "鲅": 6950,
      "鲇": 6951,
      "鲈": 6952,
      "鲊": 6953,
      "鲍": 6954,
      "鲒": 6955,
      "鲙": 6956,
      "鲛": 6957,
      "鲜": 6958,
      "鲟": 6959,
      "鲢": 6960,
      "鲤": 6961,
      "鲥": 6962,
      "鲨": 6963,
      "鲫": 6964,
      "鲭": 6965,
      "鲮": 6966,
      "鲲": 6967,
      "鲳": 6968,
      "鲶": 6969,
      "鲷": 6970,
      "鲸": 6971,
      "鲼": 6972,
      "鳃": 6973,
      "鳄": 6974,
      "鳉": 6975,
      "鳊": 6976,
      "鳌": 6977,
      "鳍": 6978,
      "鳏": 6979,
      "鳐": 6980,
      "鳕": 6981,
      "鳖": 6982,
      "鳜": 6983,
      "鳝": 6984,
      "鳞": 6985,
      "鳥": 6986,
      "鳴": 6987,
      "鵁": 6988,
      "鵝": 6989,
      "鵷": 6990,
      "鶴": 6991,
      "鶸": 6992,
      "鸟": 6993,
      "鸠": 6994,
      "鸡": 6995,
      "鸢": 6996,
      "鸣": 6997,
      "鸥": 6998,
      "鸦": 6999,
      "鸨": 7000,
      "鸩": 7001,
      "鸪": 7002,
      "鸫": 7003,
      "鸭": 7004,
      "鸯": 7005,
      "鸱": 7006,
      "鸳": 7007,
      "鸵": 7008,
      "鸶": 7009,
      "鸷": 7010,
      "鸹": 7011,
      "鸽": 7012,
      "鸾": 7013,
      "鸿": 7014,
      "鹃": 7015,
      "鹄": 7016,
      "鹅": 7017,
      "鹈": 7018,
      "鹉": 7019,
      "鹊": 7020,
      "鹌": 7021,
      "鹏": 7022,
      "鹑": 7023,
      "鹕": 7024,
      "鹗": 7025,
      "鹘": 7026,
      "鹜": 7027,
      "鹤": 7028,
      "鹦": 7029,
      "鹧": 7030,
      "鹫": 7031,
      "鹭": 7032,
      "鹮": 7033,
      "鹰": 7034,
      "鹳": 7035,
      "鹿": 7036,
      "麋": 7037,
      "麑": 7038,
      "麒": 7039,
      "麓": 7040,
      "麝": 7041,
      "麟": 7042,
      "麦": 7043,
      "麴": 7044,
      "麸": 7045,
      "麻": 7046,
      "麼": 7047,
      "麽": 7048,
      "麾": 7049,
      "麿": 7050,
      "黃": 7051,
      "黄": 7052,
      "黍": 7053,
      "黎": 7054,
      "黏": 7055,
      "黑": 7056,
      "黒": 7057,
      "黓": 7058,
      "黔": 7059,
      "默": 7060,
      "黙": 7061,
      "黛": 7062,
      "黝": 7063,
      "點": 7064,
      "黠": 7065,
      "黢": 7066,
      "黯": 7067,
      "黻": 7068,
      "黼": 7069,
      "鼎": 7070,
      "鼐": 7071,
      "鼓": 7072,
      "鼠": 7073,
      "鼬": 7074,
      "鼯": 7075,
      "鼹": 7076,
      "鼻": 7077,
      "鼾": 7078,
      "齁": 7079,
      "齐": 7080,
      "齿": 7081,
      "龄": 7082,
      "龇": 7083,
      "龈": 7084,
      "龊": 7085,
      "龋": 7086,
      "龌": 7087,
      "龍": 7088,
      "龑": 7089,
      "龙": 7090,
      "龚": 7091,
      "龛": 7092,
      "龟": 7093,
      "꒦": 7094,
      "꒰": 7095,
      "꒱": 7096,
      "꒳": 7097,
      "꙳": 7098,
      "가": 7099,
      "각": 7100,
      "굴": 7101,
      "눈": 7102,
      "도": 7103,
      "든": 7104,
      "밤": 7105,
      "생": 7106,
      "악": 7107,
      "에": 7108,
      "왕": 7109,
      "을": 7110,
      "인": 7111,
      "전": 7112,
      "️": 7113,
      "︰": 7114,
      "︶": 7115,
      "︽": 7116,
      "︿": 7117,
      "﹀": 7118,
      "﹃": 7119,
      "﹉": 7120,
      "﹌": 7121,
      "﹏": 7122,
      "﹐": 7123,
      "﹑": 7124,
      "﹒": 7125,
      "﹣": 7126,
      "！": 7127,
      "＂": 7128,
      "＃": 7129,
      "％": 7130,
      "＆": 7131,
      "（": 7132,
      "）": 7133,
      "＊": 7134,
      "＋": 7135,
      "，": 7136,
      "－": 7137,
      "．": 7138,
      "／": 7139,
      "０": 7140,
      "１": 7141,
      "２": 7142,
      "３": 7143,
      "４": 7144,
      "５": 7145,
      "６": 7146,
      "７": 7147,
      "８": 7148,
      "９": 7149,
      "：": 7150,
      "；": 7151,
      "＜": 7152,
      "＝": 7153,
      "＞": 7154,
      "？": 7155,
      "Ａ": 7156,
      "Ｂ": 7157,
      "Ｃ": 7158,
      "Ｉ": 7159,
      "Ｋ": 7160,
      "Ｍ": 7161,
      "Ｐ": 7162,
      "Ｑ": 7163,
      "Ｔ": 7164,
      "Ｕ": 7165,
      "Ｖ": 7166,
      "Ｘ": 7167,
      "［": 7168,
      "＼": 7169,
      "］": 7170,
      "＾": 7171,
      "＿": 7172,
      "｀": 7173,
      "ｉ": 7174,
      "ｍ": 7175,
      "ｎ": 7176,
      "ｐ": 7177,
      "｛": 7178,
      "｜": 7179,
      "｝": 7180,
      "～": 7181,
      "｡": 7182,
      "･": 7183,
      "ｰ": 7184,
      "ﾉ": 7185,
      "ﾞ": 7186,
      "ﾟ": 7187,
      "￣": 7188,
      "￥": 7189,
      "￼": 7190,
      "𝄪": 7191,
      "🅾": 7192,
      "🇨": 7193,
      "🇳": 7194,
      "🈂": 7195,
      "🈲": 7196,
      "🌀": 7197,
      "🌅": 7198,
      "🌈": 7199,
      "🌊": 7200,
      "🌍": 7201,
      "🌐": 7202,
      "🌟": 7203,
      "🌱": 7204,
      "🌳": 7205,
      "🌶": 7206,
      "🌸": 7207,
      "🌿": 7208,
      "🍀": 7209,
      "🍅": 7210,
      "🍉": 7211,
      "🍓": 7212,
      "🍚": 7213,
      "🍜": 7214,
      "🍠": 7215,
      "🍲": 7216,
      "🍳": 7217,
      "🍽": 7218,
      "🎁": 7219,
      "🎉": 7220,
      "🎊": 7221,
      "🎐": 7222,
      "🎛": 7223,
      "🎤": 7224,
      "🎧": 7225,
      "🎨": 7226,
      "🎬": 7227,
      "🎮": 7228,
      "🎯": 7229,
      "🎸": 7230,
      "🎹": 7231,
      "🎼": 7232,
      "🏃": 7233,
      "🏠": 7234,
      "🏻": 7235,
      "🐛": 7236,
      "🐪": 7237,
      "🐭": 7238,
      "🐶": 7239,
      "🐷": 7240,
      "👀": 7241,
      "👆": 7242,
      "👇": 7243,
      "👉": 7244,
      "👊": 7245,
      "👍": 7246,
      "👑": 7247,
      "👦": 7248,
      "👩": 7249,
      "👶": 7250,
      "💃": 7251,
      "💎": 7252,
      "💕": 7253,
      "💟": 7254,
      "💡": 7255,
      "💤": 7256,
      "💨": 7257,
      "💪": 7258,
      "💬": 7259,
      "💯": 7260,
      "💰": 7261,
      "💸": 7262,
      "📁": 7263,
      "📂": 7264,
      "📃": 7265,
      "📅": 7266,
      "📈": 7267,
      "📉": 7268,
      "📊": 7269,
      "📋": 7270,
      "📌": 7271,
      "📍": 7272,
      "📐": 7273,
      "📑": 7274,
      "📖": 7275,
      "📚": 7276,
      "📝": 7277,
      "📦": 7278,
      "📩": 7279,
      "📱": 7280,
      "📸": 7281,
      "📺": 7282,
      "🔀": 7283,
      "🔍": 7284,
      "🔒": 7285,
      "🔗": 7286,
      "🔠": 7287,
      "🔣": 7288,
      "🔤": 7289,
      "🔥": 7290,
      "🔦": 7291,
      "🔧": 7292,
      "🔴": 7293,
      "🔵": 7294,
      "🔹": 7295,
      "🔺": 7296,
      "🔻": 7297,
      "🖕": 7298,
      "🖥": 7299,
      "🗨": 7300,
      "😁": 7301,
      "😂": 7302,
      "😃": 7303,
      "😄": 7304,
      "😅": 7305,
      "😆": 7306,
      "😈": 7307,
      "😉": 7308,
      "😋": 7309,
      "😍": 7310,
      "😎": 7311,
      "😑": 7312,
      "😡": 7313,
      "😭": 7314,
      "😮": 7315,
      "🙂": 7316,
      "🙃": 7317,
      "🙄": 7318,
      "🙏": 7319,
      "🚀": 7320,
      "🚗": 7321,
      "🚩": 7322,
      "🚪": 7323,
      "🚬": 7324,
      "🛏": 7325,
      "🛠": 7326,
      "🟡": 7327,
      "🟢": 7328,
      "🟣": 7329,
      "🤍": 7330,
      "🤔": 7331,
      "🤖": 7332,
      "🤚": 7333,
      "🤝": 7334,
      "🤣": 7335,
      "🤤": 7336,
      "🤯": 7337,
      "🥒": 7338,
      "🥬": 7339,
      "🥰": 7340,
      "🥲": 7341,
      "🥹": 7342,
      "🥺": 7343,
      "🦀": 7344,
      "🧊": 7345,
      "🧐": 7346,
      "🧠": 7347,
      "🧩": 7348,
      "🧪": 7349,
      "🧭": 7350,
      "🧮": 7351,
      "🧰": 7352,
      "🧼": 7353,
      "🪐": 7354,
      "🪙": 7355,
      "🫘": 7356,
      "🫧": 7357,
      "𤆵": 7358,
      "𤎺": 7359,
      "𥦬": 7360,
      "𪆵": 7361,
      "𪟝": 7362,
      "##x": 7363,
      "##e": 7364,
      "##r": 7365,
      "##c": 7366,
      "##i": 7367,
      "##s": 7368,
      "##1": 7369,
      "##0": 7370,
      "##l": 7371,
      "##o": 7372,
      "##t": 7373,
      "##h": 7374,
      "##b": 7375,
      "##y": 7376,
      "##a": 7377,
      "##m": 7378,
      "##n": 7379,
      "##P": 7380,
      "##f": 7381,
      "##g": 7382,
      "##2": 7383,
      "##G": 7384,
      "##z": 7385,
      "##H": 7386,
      "##5": 7387,
      "##т": 7388,
      "##н": 7389,
      "##о": 7390,
      "##ш": 7391,
      "##е": 7392,
      "##и": 7393,
      "##ə": 7394,
      "##C": 7395,
      "##9": 7396,
      "##d": 7397,
      "##I": 7398,
      "##а": 7399,
      "##с": 7400,
      "##л": 7401,
      "##у": 7402,
      "##в": 7403,
      "##х": 7404,
      "##з": 7405,
      "##V": 7406,
      "##7": 7407,
      "##6": 7408,
      "##Y": 7409,
      "##M": 7410,
      "##B": 7411,
      "##O": 7412,
      "##L": 7413,
      "##D": 7414,
      "##4": 7415,
      "##T": 7416,
      "##8": 7417,
      "##3": 7418,
      "##k": 7419,
      "##j": 7420,
      "##N": 7421,
      "##A": 7422,
      "##p": 7423,
      "##W": 7424,
      "##×": 7425,
      "##E": 7426,
      "##д": 7427,
      "##ь": 7428,
      "##u": 7429,
      "##w": 7430,
      "##キ": 7431,
      "##ザ": 7432,
      "##カ": 7433,
      "##リ": 7434,
      "##п": 7435,
      "##р": 7436,
      "##г": 7437,
      "##ы": 7438,
      "##q": 7439,
      "##S": 7440,
      "##v": 7441,
      "##ю": 7442,
      "##æ": 7443,
      "##¹": 7444,
      "##｜": 7445,
      "##X": 7446,
      "##к": 7447,
      "##⁰": 7448,
      "##エ": 7449,
      "##ロ": 7450,
      "##ー": 7451,
      "##ゲ": 7452,
      "##セ": 7453,
      "##ン": 7454,
      "##б": 7455,
      "##я": 7456,
      "##R": 7457,
      "##U": 7458,
      "##と": 7459,
      "##ч": 7460,
      "##м": 7461,
      "##β": 7462,
      "##₁": 7463,
      "##→": 7464,
      "##F": 7465,
      "##♯": 7466,
      "##Ⅱ": 7467,
      "##➕": 7468,
      "##й": 7469,
      "##ろ": 7470,
      "##⾏": 7471,
      "##ц": 7472,
      "##─": 7473,
      "##ヤ": 7474,
      "##っ": 7475,
      "##て": 7476,
      "##み": 7477,
      "##た": 7478,
      "##ら": 7479,
      "##Q": 7480,
      "##♭": 7481,
      "##ル": 7482,
      "##ナ": 7483,
      "##️": 7484,
      "##⭐": 7485,
      "##ж": 7486,
      "##㎜": 7487,
      "##≈": 7488,
      "##ₖ": 7489,
      "##＞": 7490,
      "##せ": 7491,
      "##や": 7492,
      "##る": 7493,
      "##な": 7494,
      "##い": 7495,
      "##ミ": 7496,
      "##K": 7497,
      "##è": 7498,
      "##µ": 7499,
      "##ъ": 7500,
      "##℃": 7501,
      "##щ": 7502,
      "##だ": 7503,
      "##ア": 7504,
      "##ニ": 7505,
      "##メ": 7506,
      "##シ": 7507,
      "##ョ": 7508,
      "##⁄": 7509,
      "##ク": 7510,
      "##０": 7511,
      "##⁷": 7512,
      "##～": 7513,
      "##ₜ": 7514,
      "##ά": 7515,
      "##θ": 7516,
      "##ο": 7517,
      "##ς": 7518,
      "##é": 7519,
      "##±": 7520,
      "##ぷ": 7521,
      "##に": 7522,
      "##は": 7523,
      "##か": 7524,
      "##わ": 7525,
      "##ス": 7526,
      "##ラ": 7527,
      "##イ": 7528,
      "##ム": 7529,
      "##ｉ": 7530,
      "##˙": 7531,
      "##▽": 7532,
      "##◦": 7533,
      "##ッ": 7534,
      "##ケ": 7535,
      "##®": 7536,
      "##⁶": 7537,
      "##で": 7538,
      "##す": 7539,
      "##が": 7540,
      "##★": 7541,
      "##²": 7542,
      "##コ": 7543,
      "##ペ": 7544,
      "##り": 7545,
      "##レ": 7546,
      "##バ": 7547,
      "##テ": 7548,
      "##④": 7549,
      "##③": 7550,
      "##②": 7551,
      "##①": 7552,
      "##ャ": 7553,
      "##√": 7554,
      "##⃣": 7555,
      "##フ": 7556,
      "##❗": 7557,
      "##Z": 7558,
      "##✅": 7559,
      "##á": 7560,
      "##ず": 7561,
      "##し": 7562,
      "##も": 7563,
      "##さ": 7564,
      "##れ": 7565,
      "##き": 7566,
      "##π": 7567,
      "##ι": 7568,
      "##σ": 7569,
      "##τ": 7570,
      "##ρ": 7571,
      "##φ": 7572,
      "##ή": 7573,
      "##㎡": 7574,
      "##ガ": 7575,
      "##ἶ": 7576,
      "##δ": 7577,
      "##ん": 7578,
      "##＜": 7579,
      "##ツ": 7580,
      "##８": 7581,
      "##ダ": 7582,
      "##ト": 7583,
      "##ф": 7584,
      "##ま": 7585,
      "##く": 7586,
      "##こ": 7587,
      "##✨": 7588,
      "##の": 7589,
      "##ν": 7590,
      "##ε": 7591,
      "##λ": 7592,
      "##έ": 7593,
      "##χ": 7594,
      "##α": 7595,
      "##К": 7596,
      "##П": 7597,
      "##✚": 7598,
      "##J": 7599,
      "##ø": 7600,
      "##ä": 7601,
      "##⁹": 7602,
      "##à": 7603,
      "##₃": 7604,
      "##⁻": 7605,
      "##₅": 7606,
      "##サ": 7607,
      "##ド": 7608,
      "##マ": 7609,
      "##タ": 7610,
      "##î": 7611,
      "##🐶": 7612,
      "##ジ": 7613,
      "##＋": 7614,
      "##モ": 7615,
      "##え": 7616,
      "##ち": 7617,
      "##η": 7618,
      "##μ": 7619,
      "##κ": 7620,
      "##お": 7621,
      "##パ": 7622,
      "##け": 7623,
      "##ハ": 7624,
      "##Ⅲ": 7625,
      "##ギ": 7626,
      "##ぶ": 7627,
      "##チ": 7628,
      "##ậ": 7629,
      "##⁴": 7630,
      "##😋": 7631,
      "##グ": 7632,
      "##©": 7633,
      "##ュ": 7634,
      "##ヘ": 7635,
      "##≤": 7636,
      "##ᵔ": 7637,
      "##⌔": 7638,
      "##๑": 7639,
      "##ゃ": 7640,
      "##ね": 7641,
      "##™": 7642,
      "##³": 7643,
      "##ィ": 7644,
      "##ェ": 7645,
      "##￥": 7646,
      "##ö": 7647,
      "##ウ": 7648,
      "##じ": 7649,
      "##め": 7650,
      "##ひ": 7651,
      "##よ": 7652,
      "##ぃ": 7653,
      "##う": 7654,
      "##ぉ": 7655,
      "##ç": 7656,
      "##ｐ": 7657,
      "##∀": 7658,
      "##´": 7659,
      "##ἰ": 7660,
      "##ί": 7661,
      "##ộ": 7662,
      "##❌": 7663,
      "##ピ": 7664,
      "##À": 7665,
      "##ネ": 7666,
      "##ポ": 7667,
      "##ὰ": 7668,
      "##△": 7669,
      "##ῖ": 7670,
      "##Ｐ": 7671,
      "##Ｉ": 7672,
      "##⁺": 7673,
      "##🏻": 7674,
      "##┘": 7675,
      "##°": 7676,
      "##굴": 7677,
      "##왕": 7678,
      "##💨": 7679,
      "##̑": 7680,
      "##−": 7681,
      "##♮": 7682,
      "##â": 7683,
      "##ü": 7684,
      "##́": 7685,
      "##ὐ": 7686,
      "##∫": 7687,
      "##￣": 7688,
      "##ソ": 7689,
      "##５": 7690,
      "##ύ": 7691,
      "##⑤": 7692,
      "##⑥": 7693,
      "##あ": 7694,
      "##👦": 7695,
      "##ベ": 7696,
      "##つ": 7697,
      "##Ⅰ": 7698,
      "##┤": 7699,
      "##꒱": 7700,
      "##୨": 7701,
      "##̀": 7702,
      "##ᵕ": 7703,
      "##ξ": 7704,
      "##∗": 7705,
      "##Д": 7706,
      "##Р": 7707,
      "##э": 7708,
      "##デ": 7709,
      "##❤": 7710,
      "##👑": 7711,
      "##ⱼ": 7712,
      "##ཀ": 7713,
      "##ị": 7714,
      "##ế": 7715,
      "##⦁": 7716,
      "##⩊": 7717,
      "##⁵": 7718,
      "##Í": 7719,
      "##ぁ": 7720,
      "##ⅹ": 7721,
      "##š": 7722,
      "##ブ": 7723,
      "##∞": 7724,
      "##ぬ": 7725,
      "##そ": 7726,
      "##ふ": 7727,
      "##ヴ": 7728,
      "##ァ": 7729,
      "##オ": 7730,
      "##˵": 7731,
      "##げ": 7732,
      "##✖": 7733,
      "##∇": 7734,
      "##べ": 7735,
      "##を": 7736,
      "##ī": 7737,
      "##🥰": 7738,
      "##ψ": 7739,
      "##４": 7740,
      "##⽉": 7741,
      "##ʾ": 7742,
      "##ω": 7743,
      "##↓": 7744,
      "##Đ": 7745,
      "##ῦ": 7746,
      "##😁": 7747,
      "##プ": 7748,
      "##γ": 7749,
      "##≥": 7750,
      "##━": 7751,
      "##＾": 7752,
      "##₂": 7753,
      "##ᵢ": 7754,
      "##¢": 7755,
      "##ǒ": 7756,
      "##ぎ": 7757,
      "##̫": 7758,
      "##ゴ": 7759,
      "##ā": 7760,
      "##ԅ": 7761,
      "##ß": 7762,
      "##◡": 7763,
      "##ノ": 7764,
      "##む": 7765,
      "##＝": 7766,
      "##び": 7767,
      "##Ц": 7768,
      "##С": 7769,
      "##⋯": 7770,
      "##ズ": 7771,
      "##ₙ": 7772,
      "##ô": 7773,
      "##１": 7774,
      "##ォ": 7775,
      "##ƪ": 7776,
      "##ホ": 7777,
      "##ò": 7778,
      "##ᆺ": 7779,
      "##ó": 7780,
      "##▼": 7781,
      "##ヰ": 7782,
      "##ぐ": 7783,
      "##２": 7784,
      "##인": 7785,
      "##전": 7786,
      "##ῶ": 7787,
      "##ᵀ": 7788,
      "##∃": 7789,
      "##₄": 7790,
      "##ິ": 7791,
      "##ú": 7792,
      "##←": 7793,
      "##ゅ": 7794,
      "##͈": 7795,
      "##꒳": 7796,
      "##ˉ": 7797,
      "##ǐ": 7798,
      "##Т": 7799,
      "##Ü": 7800,
      "##ấ": 7801,
      "##⽅": 7802,
      "##̂": 7803,
      "##Н": 7804,
      "##В": 7805,
      "##Ω": 7806,
      "##ﾞ": 7807,
      "##々": 7808,
      "##ビ": 7809,
      "##Ｔ": 7810,
      "##Ｖ": 7811,
      "##Ⅳ": 7812,
      "##⁸": 7813,
      "##⼩": 7814,
      "##⽬": 7815,
      "##〇": 7816,
      "##🤯": 7817,
      "##🎉": 7818,
      "##ʹ": 7819,
      "##☆": 7820,
      "##Ｕ": 7821,
      "##Ａ": 7822,
      "##😂": 7823,
      "##□": 7824,
      "##ê": 7825,
      "##ぜ": 7826,
      "##Φ": 7827,
      "##ワ": 7828,
      "##ề": 7829,
      "##̲": 7830,
      "##О": 7831,
      "##ă": 7832,
      "##ｍ": 7833,
      "##Г": 7834,
      "##ボ": 7835,
      "##ょ": 7836,
      "##ぴ": 7837,
      "##❓": 7838,
      "##⾼": 7839,
      "##ᴗ": 7840,
      "##∈": 7841,
      "##😭": 7842,
      "##✪": 7843,
      "##ℏ": 7844,
      "##ș": 7845,
      "##č": 7846,
      "##̃": 7847,
      "##🧮": 7848,
      "##ư": 7849,
      "##ơ": 7850,
      "##ō": 7851,
      "##⽤": 7852,
      "##̗": 7853,
      "##ό": 7854,
      "##ゆ": 7855,
      "##ħ": 7856,
      "##⠀": 7857,
      "##୭": 7858,
      "##₀": 7859,
      "##ë": 7860,
      "##ˈ": 7861,
      "##ɒ": 7862,
      "##ʒ": 7863,
      "##∏": 7864,
      "##◊": 7865,
      "##｀": 7866,
      "##༝": 7867,
      "##υ": 7868,
      "##ὶ": 7869,
      "##꒰": 7870,
      "##ぼ": 7871,
      "##÷": 7872,
      "##ユ": 7873,
      "##ಡ": 7874,
      "##🍳": 7875,
      "##⭕": 7876,
      "##ゼ": 7877,
      "##ὴ": 7878,
      "##👊": 7879,
      "##ʃ": 7880,
      "##ɔ": 7881,
      "##℉": 7882,
      "##А": 7883,
      "##Э": 7884,
      "##ʖ": 7885,
      "##ñ": 7886,
      "##Δ": 7887,
      "##ῆ": 7888,
      "##∠": 7889,
      "##⬇": 7890,
      "##⌣": 7891,
      "##ﾟ": 7892,
      "##❷": 7893,
      "##❸": 7894,
      "##┐": 7895,
      "##ヌ": 7896,
      "##↑": 7897,
      "##ả": 7898,
      "##♪": 7899,
      "##ệ": 7900,
      "##Ш": 7901,
      "##을": 7902,
      "##밤": 7903,
      "##에": 7904,
      "##ὸ": 7905,
      "##⼀": 7906,
      "##Б": 7907,
      "##각": 7908,
      "##ฅ": 7909,
      "##⼤": 7910,
      "##⊙": 7911,
      "##Ф": 7912,
      "##˄": 7913,
      "##゙": 7914,
      "##¬": 7915,
      "##ㄒ": 7916,
      "##≦": 7917,
      "##Ч": 7918,
      "##И": 7919,
      "##Е": 7920,
      "##Л": 7921,
      "##Ь": 7922,
      "##◍": 7923,
      "##ώ": 7924,
      "##㎝": 7925,
      "##９": 7926,
      "##✩": 7927,
      "##ぽ": 7928,
      "##ₗ": 7929,
      "##⾊": 7930,
      "##ゥ": 7931,
      "##゚": 7932,
      "##ヒ": 7933,
      "##⑧": 7934,
      "##⑨": 7935,
      "##Ä": 7936,
      "##М": 7937,
      "##⽔": 7938,
      "##ご": 7939,
      "##ㅂ": 7940,
      "##⽆": 7941,
      "##ἴ": 7942,
      "##ḥ": 7943,
      "##⼉": 7944,
      "##⽿": 7945,
      "##Я": 7946,
      "##˘": 7947,
      "##ღ": 7948,
      "##へ": 7949,
      "##ぇ": 7950,
      "##ざ": 7951,
      "##ば": 7952,
      "##⾯": 7953,
      "##ū": 7954,
      "##ć": 7955,
      "##🤤": 7956,
      "##म": 7957,
      "##क": 7958,
      "##Ｑ": 7959,
      "##ｰ": 7960,
      "##ほ": 7961,
      "##🇳": 7962,
      "##➡": 7963,
      "##☝": 7964,
      "##ᵏ": 7965,
      "##ᵎ": 7966,
      "##⑦": 7967,
      "##ˌ": 7968,
      "##ɪ": 7969,
      "##ㅁ": 7970,
      "##ì": 7971,
      "##ợ": 7972,
      "##🥒": 7973,
      "##🍲": 7974,
      "##🥹": 7975,
      "##🤚": 7976,
      "##😅": 7977,
      "##00": 7978,
      "20": 7979,
      "##er": 7980,
      "##in": 7981,
      "202": 7982,
      "##on": 7983,
      "##at": 7984,
      "##en": 7985,
      "10": 7986,
      "##or": 7987,
      "##it": 7988,
      "##an": 7989,
      "19": 7990,
      "12": 7991,
      "##000": 7992,
      "##ar": 7993,
      "##al": 7994,
      "##ro": 7995,
      "##ic": 7996,
      "##es": 7997,
      "##et": 7998,
      "AI": 7999,
      "15": 8000,
      "##el": 8001,
      "##om": 8002,
      "##df": 8003,
      "##st": 8004,
      "##ch": 8005,
      "11": 8006,
      "##ad": 8007,
      "16": 8008,
      "pdf": 8009,
      "##PU": 8010,
      "##ion": 8011,
      "201": 8012,
      "##le": 8013,
      "##am": 8014,
      "##ing": 8015,
      "100": 8016,
      "30": 8017,
      "2026": 8018,
      "14": 8019,
      "##tt": 8020,
      "##ed": 8021,
      "18": 8022,
      "##as": 8023,
      "200": 8024,
      "##ur": 8025,
      "##ac": 8026,
      "##ol": 8027,
      "25": 8028,
      "13": 8029,
      "##Hz": 8030,
      "##he": 8031,
      "##il": 8032,
      "com": 8033,
      "##od": 8034,
      "Pro": 8035,
      "##ps": 8036,
      "##nd": 8037,
      "50": 8038,
      "##iv": 8039,
      "##ent": 8040,
      "htt": 8041,
      "##is": 8042,
      "##os": 8043,
      "##tr": 8044,
      "##99": 8045,
      "##us": 8046,
      "2025": 8047,
      "17": 8048,
      "##re": 8049,
      "##nt": 8050,
      "##ut": 8051,
      "40": 8052,
      "##ct": 8053,
      "##50": 8054,
      "24": 8055,
      "##id": 8056,
      "https": 8057,
      "##ate": 8058,
      "##ot": 8059,
      "##10": 8060,
      "##ub": 8061,
      "CPU": 8062,
      "##im": 8063,
      "##em": 8064,
      "##ag": 8065,
      "2024": 8066,
      "##ex": 8067,
      "##mm": 8068,
      "st": 8069,
      "60": 8070,
      "90": 8071,
      "##ce": 8072,
      "##lo": 8073,
      "##ay": 8074,
      "of": 8075,
      "##PS": 8076,
      "##️⭐": 8077,
      "GPU": 8078,
      "in": 8079,
      "##ig": 8080,
      "##12": 8081,
      "##ation": 8082,
      "22": 8083,
      "##RC": 8084,
      "80": 8085,
      "##um": 8086,
      "MA": 8087,
      "##op": 8088,
      "##60": 8089,
      "21": 8090,
      "##hi": 8091,
      "##80": 8092,
      "St": 8093,
      "##13": 8094,
      "##oc": 8095,
      "##hon": 8096,
      "##nm": 8097,
      "##ul": 8098,
      "23": 8099,
      "##pp": 8100,
      "##ist": 8101,
      "32": 8102,
      "##og": 8103,
      "##ен": 8104,
      "##ud": 8105,
      "##ab": 8106,
      "##ext": 8107,
      "##ED": 8108,
      "3A": 8109,
      "##ст": 8110,
      "120": 8111,
      "##16": 8112,
      "and": 8113,
      "27": 8114,
      "PC": 8115,
      "##ug": 8116,
      "##GB": 8117,
      "##PP": 8118,
      "##ap": 8119,
      "##ir": 8120,
      "IP": 8121,
      "199": 8122,
      "5000": 8123,
      "2000": 8124,
      "##if": 8125,
      "##ity": 8126,
      "##tra": 8127,
      "3D": 8128,
      "##ов": 8129,
      "##️⭐️⭐": 8130,
      "##OS": 8131,
      "##ow": 8132,
      "300": 8133,
      "##40": 8134,
      "##DR": 8135,
      "35": 8136,
      "the": 8137,
      "28": 8138,
      "##ew": 8139,
      "##100": 8140,
      "##ltra": 8141,
      "1000": 8142,
      "##15": 8143,
      "##IS": 8144,
      "##ess": 8145,
      "45": 8146,
      "##iz": 8147,
      "##ib": 8148,
      "##32": 8149,
      "##ep": 8150,
      "iP": 8151,
      "##ec": 8152,
      "70": 8153,
      "##ue": 8154,
      "##ok": 8155,
      "##ou": 8156,
      "##ax": 8157,
      "2021": 8158,
      "##hu": 8159,
      "##70": 8160,
      "##act": 8161,
      "##ory": 8162,
      "##ata": 8163,
      "ww": 8164,
      "##но": 8165,
      "##SB": 8166,
      "git": 8167,
      "www": 8168,
      "##ore": 8169,
      "cl": 8170,
      "26": 8171,
      "MAT": 8172,
      "##18": 8173,
      "2023": 8174,
      "##20": 8175,
      "##NA": 8176,
      "##ect": 8177,
      "Ultra": 8178,
      "text": 8179,
      "pl": 8180,
      "##RCH": 8181,
      "RT": 8182,
      "##art": 8183,
      "Int": 8184,
      "##ass": 8185,
      "##ре": 8186,
      "##──": 8187,
      "99": 8188,
      "##ens": 8189,
      "MATH": 8190,
      "##ine": 8191,
      "500": 8192,
      "##ev": 8193,
      "##11": 8194,
      "##MD": 8195,
      "5G": 8196,
      "2022": 8197,
      "##ал": 8198,
      "##mp": 8199,
      "##Ah": 8200,
      "##hone": 8201,
      "##LED": 8202,
      "##ant": 8203,
      "##est": 8204,
      "33": 8205,
      "##OM": 8206,
      "MATH13": 8207,
      "##ive": 8208,
      "##un": 8209,
      "##ers": 8210,
      "##and": 8211,
      "##hihu": 8212,
      "zhihu": 8213,
      "##UV": 8214,
      "The": 8215,
      "##eb": 8216,
      "##ff": 8217,
      "##★★": 8218,
      "00": 8219,
      "pr": 8220,
      "##ack": 8221,
      "##ach": 8222,
      "DC": 8223,
      "USB": 8224,
      "##14": 8225,
      "##ran": 8226,
      "##то": 8227,
      "##ov": 8228,
      "##mAh": 8229,
      "##int": 8230,
      "##ob": 8231,
      "##ind": 8232,
      "##ME": 8233,
      "##25": 8234,
      "##90": 8235,
      "##urn": 8236,
      "##th": 8237,
      "198": 8238,
      "##ra": 8239,
      "Ch": 8240,
      "pro": 8241,
      "##ame": 8242,
      "In": 8243,
      "2020": 8244,
      "Git": 8245,
      "RTX": 8246,
      "##ip": 8247,
      "mod": 8248,
      "##nit": 8249,
      "AR": 8250,
      "EC": 8251,
      "##PI": 8252,
      "Gen": 8253,
      "OLED": 8254,
      "##ge": 8255,
      "75": 8256,
      "190": 8257,
      "##du": 8258,
      "##orm": 8259,
      "##end": 8260,
      "con": 8261,
      "##av": 8262,
      "##ard": 8263,
      "##ни": 8264,
      "4K": 8265,
      "BI": 8266,
      "##ast": 8267,
      "##ро": 8268,
      "##PT": 8269,
      "##yp": 8270,
      "Al": 8271,
      "##ak": 8272,
      "##45": 8273,
      "36": 8274,
      "AMD": 8275,
      "##ern": 8276,
      "2019": 8277,
      "3000": 8278,
      "800": 8279,
      "##ia": 8280,
      "##eam": 8281,
      "##30": 8282,
      "##ock": 8283,
      "по": 8284,
      "##ort": 8285,
      "256": 8286,
      "to": 8287,
      "##ел": 8288,
      "##PPO": 8289,
      "DNA": 8290,
      "48": 8291,
      "for": 8292,
      "65": 8293,
      "OPPO": 8294,
      "##PC": 8295,
      "38": 8296,
      "2K": 8297,
      "##го": 8298,
      "##ivo": 8299,
      "01": 8300,
      "95": 8301,
      "al": 8302,
      "data": 8303,
      "##yt": 8304,
      "##ко": 8305,
      "##ри": 8306,
      "##⭐⭐": 8307,
      "29": 8308,
      "##ef": 8309,
      "31": 8310,
      "##MA": 8311,
      "vivo": 8312,
      "##io": 8313,
      "##pen": 8314,
      "197": 8315,
      "##igh": 8316,
      "400": 8317,
      "or": 8318,
      "##ime": 8319,
      "##ра": 8320,
      "GA": 8321,
      "##ma": 8322,
      "ret": 8323,
      "##ee": 8324,
      "##Pro": 8325,
      "##all": 8326,
      "##age": 8327,
      "195": 8328,
      "##CD": 8329,
      "iPhone": 8330,
      "##ugin": 8331,
      "##ook": 8332,
      "##atch": 8333,
      "##MB": 8334,
      "Mod": 8335,
      "##cc": 8336,
      "An": 8337,
      "II": 8338,
      "##ian": 8339,
      "196": 8340,
      "Sp": 8341,
      "на": 8342,
      "##ey": 8343,
      "plugin": 8344,
      "do": 8345,
      "##27": 8346,
      "##ure": 8347,
      "##RCE": 8348,
      "##OMME": 8349,
      "ECOMME": 8350,
      "BIZ": 8351,
      "ECOMMERCE": 8352,
      "##ell": 8353,
      "34": 8354,
      "55": 8355,
      "##ON": 8356,
      "##AM": 8357,
      "##eo": 8358,
      "##up": 8359,
      "##actor": 8360,
      "600": 8361,
      "не": 8362,
      "##ени": 8363,
      "02": 8364,
      "Wi": 8365,
      "##LC": 8366,
      "2017": 8367,
      "120Hz": 8368,
      "##qu": 8369,
      "512": 8370,
      "##ies": 8371,
      "int": 8372,
      "##DA": 8373,
      "##itch": 8374,
      "4G": 8375,
      "##ial": 8376,
      "##ice": 8377,
      "98": 8378,
      "TS": 8379,
      "##ork": 8380,
      "4000": 8381,
      "PS": 8382,
      "##let": 8383,
      "GT": 8384,
      "##98": 8385,
      "Max": 8386,
      "##af": 8387,
      "⭐️⭐️⭐": 8388,
      "##ix": 8389,
      "ar": 8390,
      "##ss": 8391,
      "##our": 8392,
      "##ISC": 8393,
      "##ie": 8394,
      "##ize": 8395,
      "64": 8396,
      "Ar": 8397,
      "tr": 8398,
      "##eg": 8399,
      "##hy": 8400,
      "##ux": 8401,
      "##ang": 8402,
      "##ill": 8403,
      "return": 8404,
      "03": 8405,
      "##OP": 8406,
      "##TB": 8407,
      "th": 8408,
      "xg": 8409,
      "##IN": 8410,
      "85": 8411,
      "##se": 8412,
      "##200": 8413,
      "##ical": 8414,
      "144": 8415,
      "##ти": 8416,
      "##ны": 8417,
      "IV": 8418,
      "##24": 8419,
      "##ython": 8420,
      "##ik": 8421,
      "5K": 8422,
      "App": 8423,
      "Lin": 8424,
      "PD": 8425,
      "Pr": 8426,
      "##300": 8427,
      "##ark": 8428,
      "##ache": 8429,
      "##ile": 8430,
      "##lic": 8431,
      "##75": 8432,
      "##ust": 8433,
      "##ase": 8434,
      "Com": 8435,
      "Mate": 8436,
      "RISC": 8437,
      "df": 8438,
      "39": 8439,
      "FP": 8440,
      "app": 8441,
      "http": 8442,
      "Intel": 8443,
      "HR": 8444,
      "sh": 8445,
      "##ear": 8446,
      "##0Hz": 8447,
      "IP6": 8448,
      "MATH130": 8449,
      "GARCH": 8450,
      "cn": 8451,
      "42": 8452,
      "LP": 8453,
      "Un": 8454,
      "factor": 8455,
      "##DR5": 8456,
      "##rans": 8457,
      "##ype": 8458,
      "##MI": 8459,
      "##ert": 8460,
      "P3": 8461,
      "##ев": 8462,
      "##ли": 8463,
      "##ensor": 8464,
      "37": 8465,
      "##DP": 8466,
      "##да": 8467,
      "##33": 8468,
      "##ру": 8469,
      "05": 8470,
      "★★★": 8471,
      "iPad": 8472,
      "APP": 8473,
      "##AN": 8474,
      "##FS": 8475,
      "##ini": 8476,
      "##ose": 8477,
      "PCI": 8478,
      "##HX": 8479,
      "150": 8480,
      "Ad": 8481,
      "Cl": 8482,
      "##17": 8483,
      "on": 8484,
      "LCD": 8485,
      "##ient": 8486,
      "##head": 8487,
      "pp": 8488,
      "sp": 8489,
      "##km": 8490,
      "Sy": 8491,
      "##OO": 8492,
      "##ition": 8493,
      "2016": 8494,
      "##ight": 8495,
      "Air": 8496,
      "##ms": 8497,
      "##400": 8498,
      "AC": 8499,
      "API": 8500,
      "qu": 8501,
      "##ет": 8502,
      "6000": 8503,
      "##ction": 8504,
      "##Pad": 8505,
      "##GA": 8506,
      "##witch": 8507,
      "comm": 8508,
      "4S": 8509,
      "##ID": 8510,
      "##kg": 8511,
      "##ics": 8512,
      "PPT": 8513,
      "##ence": 8514,
      "04": 8515,
      "5A": 8516,
      "EUV": 8517,
      "1500": 8518,
      "##oss": 8519,
      "re": 8520,
      "9V": 8521,
      "PE": 8522,
      "RO": 8523,
      "##FC": 8524,
      "HK": 8525,
      "68": 8526,
      "##19": 8527,
      "##73": 8528,
      "##ph": 8529,
      "2018": 8530,
      "##────": 8531,
      "LPD": 8532,
      "Con": 8533,
      "##put": 8534,
      "Go": 8535,
      "ex": 8536,
      "1T": 8537,
      "Sc": 8538,
      "Th": 8539,
      "##ta": 8540,
      "##ment": 8541,
      "##II": 8542,
      "2015": 8543,
      "sy": 8544,
      "##eta": 8545,
      "TA": 8546,
      "ch": 8547,
      "46": 8548,
      "56": 8549,
      "Co": 8550,
      "if": 8551,
      "##ech": 8552,
      "##ance": 8553,
      "##ode": 8554,
      "59": 8555,
      "5V": 8556,
      "SA": 8557,
      "##BM": 8558,
      "##ть": 8559,
      "43": 8560,
      "##ult": 8561,
      "47": 8562,
      "##ter": 8563,
      "##ord": 8564,
      "##ite": 8565,
      "Steam": 8566,
      "CU": 8567,
      "De": 8568,
      "Python": 8569,
      "##на": 8570,
      "##ол": 8571,
      "##49": 8572,
      "128": 8573,
      "##ash": 8574,
      "##ree": 8575,
      "Mag": 8576,
      "RTX50": 8577,
      "07": 8578,
      "44": 8579,
      "ind": 8580,
      "##ain": 8581,
      "##ка": 8582,
      "stock": 8583,
      "RD": 8584,
      "an": 8585,
      "##ck": 8586,
      "##lus": 8587,
      "LPDDR5": 8588,
      "8000": 8589,
      "PB": 8590,
      "##form": 8591,
      "##LP": 8592,
      "##ver": 8593,
      "10000": 8594,
      "Linux": 8595,
      "IPS": 8596,
      "Re": 8597,
      "pub": 8598,
      "str": 8599,
      "##ся": 8600,
      "##OPS": 8601,
      "##ary": 8602,
      "ARCH": 8603,
      "NV": 8604,
      "ahead": 8605,
      "##86": 8606,
      "##ign": 8607,
      "##ml": 8608,
      "##26": 8609,
      "##ом": 8610,
      "##BA": 8611,
      "##Fi": 8612,
      "7nm": 8613,
      "AS": 8614,
      "HDR": 8615,
      "ad": 8616,
      "##fer": 8617,
      "##GM": 8618,
      "##one": 8619,
      "##ith": 8620,
      "12V": 8621,
      "##ств": 8622,
      "commit": 8623,
      "ра": 8624,
      "##AS": 8625,
      "##ки": 8626,
      "512G": 8627,
      "TC": 8628,
      "date": 8629,
      "★★": 8630,
      "##ifi": 8631,
      "41": 8632,
      "BE": 8633,
      "Ph": 8634,
      "bu": 8635,
      "##ер": 8636,
      "##are": 8637,
      "16G": 8638,
      "144Hz": 8639,
      "vs": 8640,
      "##emory": 8641,
      "54": 8642,
      "88": 8643,
      "за": 8644,
      "##ath": 8645,
      "67": 8646,
      "Trans": 8647,
      "##ry": 8648,
      "##66": 8649,
      "Open": 8650,
      "log": 8651,
      "##ll": 8652,
      "##LM": 8653,
      "##ди": 8654,
      "##ong": 8655,
      "2010": 8656,
      "2014": 8657,
      "Magic": 8658,
      "52": 8659,
      "72": 8660,
      "get": 8661,
      "mq": 8662,
      "##mi": 8663,
      "##IC": 8664,
      "##TC": 8665,
      "##ideo": 8666,
      "IC": 8667,
      "##gent": 8668,
      "58": 8669,
      "618": 8670,
      "Str": 8671,
      "##QOO": 8672,
      "##ade": 8673,
      "165": 8674,
      "2013": 8675,
      "Tensor": 8676,
      "##MO": 8677,
      "##RAM": 8678,
      "100W": 8679,
      "Qu": 8680,
      "del": 8681,
      "##ML": 8682,
      "##SD": 8683,
      "##rom": 8684,
      "MATH1300": 8685,
      "Fi": 8686,
      "NPC": 8687,
      "##ем": 8688,
      "##TT": 8689,
      "min": 8690,
      "##ло": 8691,
      "##SA": 8692,
      "##ann": 8693,
      "##ames": 8694,
      "org": 8695,
      "##ly": 8696,
      "##ost": 8697,
      "##️⭐️": 8698,
      "CUDA": 8699,
      "MI": 8700,
      "Red": 8701,
      "ai": 8702,
      "##ла": 8703,
      "##ink": 8704,
      "100km": 8705,
      "##ace": 8706,
      "1903": 8707,
      "256G": 8708,
      "Ex": 8709,
      "edu": 8710,
      "##oS": 8711,
      "##a8": 8712,
      "class": 8713,
      "66": 8714,
      "iQOO": 8715,
      "##OL": 8716,
      "2006": 8717,
      "##low": 8718,
      "06": 8719,
      "UFS": 8720,
      "##78": 8721,
      "193": 8722,
      "110": 8723,
      "##olog": 8724,
      "2D": 8725,
      "Sh": 8726,
      "##enc": 8727,
      "BGM": 8728,
      "np": 8729,
      "video": 8730,
      "##emo": 8731,
      "000": 8732,
      "83": 8733,
      "sc": 8734,
      "⭐⭐⭐": 8735,
      "##ng": 8736,
      "##48": 8737,
      "2011": 8738,
      "DCI": 8739,
      "PCIe": 8740,
      "GDP": 8741,
      "Tr": 8742,
      "бы": 8743,
      "##AD": 8744,
      "sub": 8745,
      "##ean": 8746,
      "##out": 8747,
      "##ys": 8748,
      "##23": 8749,
      "##ET": 8750,
      "##999": 8751,
      "##hip": 8752,
      "Stud": 8753,
      "ST": 8754,
      "##во": 8755,
      "##LS": 8756,
      "##Wh": 8757,
      "##RT": 8758,
      "##ick": 8759,
      "##ili": 8760,
      "57": 8761,
      "7000": 8762,
      "Am": 8763,
      "GB": 8764,
      "##WM": 8765,
      "1200": 8766,
      "49": 8767,
      "C2": 8768,
      "xx": 8769,
      "##az": 8770,
      "##aw": 8771,
      "##arp": 8772,
      "MatePad": 8773,
      "51": 8774,
      "IN": 8775,
      "WiFi": 8776,
      "public": 8777,
      "78": 8778,
      "8G": 8779,
      "id": 8780,
      "imp": 8781,
      "##SI": 8782,
      "##бо": 8783,
      "##ict": 8784,
      "res": 8785,
      "##ram": 8786,
      "##ier": 8787,
      "##iew": 8788,
      "##ld": 8789,
      "##ool": 8790,
      "##28": 8791,
      "##GE": 8792,
      "##65": 8793,
      "##pl": 8794,
      "20V": 8795,
      "##arch": 8796,
      "Jo": 8797,
      "Mac": 8798,
      "##pt": 8799,
      "##ма": 8800,
      "index": 8801,
      "mqtt": 8802,
      "08": 8803,
      "89": 8804,
      "PWM": 8805,
      "##ber": 8806,
      "##OD": 8807,
      "##али": 8808,
      "87": 8809,
      "RGB": 8810,
      "SN": 8811,
      "180": 8812,
      "##ention": 8813,
      "bug": 8814,
      "open": 8815,
      "ЦК": 8816,
      "##b1": 8817,
      "##eng": 8818,
      "##indow": 8819,
      "TSV": 8820,
      "53": 8821,
      "HBM": 8822,
      "Mi": 8823,
      "##oC": 8824,
      "##ish": 8825,
      "NFC": 8826,
      "Pad": 8827,
      "со": 8828,
      "##та": 8829,
      "##ей": 8830,
      "##MC": 8831,
      "##OC": 8832,
      "##att": 8833,
      "1080": 8834,
      "##usic": 8835,
      "##leton": 8836,
      "Apple": 8837,
      "##rid": 8838,
      "##nc": 8839,
      "##44": 8840,
      "stat": 8841,
      "##eek": 8842,
      "##IDI": 8843,
      "Agent": 8844,
      "IM": 8845,
      "cache": 8846,
      "list": 8847,
      "##cm": 8848,
      "##тел": 8849,
      "##TA": 8850,
      "##ject": 8851,
      "##SP": 8852,
      "##ont": 8853,
      "1903a": 8854,
      "BOS": 8855,
      "от": 8856,
      "##oop": 8857,
      "##ad0": 8858,
      "##ogle": 8859,
      "delta": 8860,
      "Le": 8861,
      "as": 8862,
      "##EE": 8863,
      "##ond": 8864,
      "⭐️⭐️⭐️⭐️": 8865,
      "LPDDR5X": 8866,
      "FPS": 8867,
      "SUV": 8868,
      "VI": 8869,
      "met": 8870,
      "wifi": 8871,
      "##bo": 8872,
      "##55": 8873,
      "##EC": 8874,
      "##SC": 8875,
      "##RGB": 8876,
      "##～～": 8877,
      "250": 8878,
      "AT": 8879,
      "pos": 8880,
      "OP": 8881,
      "ps": 8882,
      "что": 8883,
      "##ft": 8884,
      "##21": 8885,
      "##ual": 8886,
      "2027": 8887,
      "##ank": 8888,
      "2012": 8889,
      "##ask": 8890,
      "2001": 8891,
      "ID": 8892,
      "UI": 8893,
      "en": 8894,
      "##eat": 8895,
      "##sh": 8896,
      "##29": 8897,
      "##се": 8898,
      "##сь": 8899,
      "##15c": 8900,
      "5D": 8901,
      "PR": 8902,
      "TOP": 8903,
      "Хру": 8904,
      "##94": 8905,
      "##88": 8906,
      "##FO": 8907,
      "##щев": 8908,
      "##esh": 8909,
      "##ttention": 8910,
      "2008": 8911,
      "##ility": 8912,
      "##9940": 8913,
      "##сти": 8914,
      "##ова": 8915,
      "##ount": 8916,
      "Google": 8917,
      "##ology": 8918,
      "Хрущев": 8919,
      "Vol": 8920,
      "new": 8921,
      "##bit": 8922,
      "##700": 8923,
      "##Mp": 8924,
      "##EM": 8925,
      "##ator": 8926,
      "##ce1": 8927,
      "##indows": 8928,
      "8K": 8929,
      "Fin": 8930,
      "Ga": 8931,
      "SI": 8932,
      "e15c": 8933,
      "##rit": 8934,
      "##b16": 8935,
      "##b73": 8936,
      "##PG": 8937,
      "##ско": 8938,
      "##600": 8939,
      "##dfb16": 8940,
      "##str": 8941,
      "##adad0": 8942,
      "##ild": 8943,
      "##ilib": 8944,
      "##ism": 8945,
      "##afa8": 8946,
      "##b1afa8": 8947,
      "##9940b1afa8": 8948,
      "##ce1dfb16": 8949,
      "e15c9940b1afa8": 8950,
      "##b73adad0": 8951,
      "##ce1dfb1615": 8952,
      "e15c9940b1afa8b73adad0": 8953,
      "e15c9940b1afa8b73adad0ce1dfb1615": 8954,
      "##79": 8955,
      "##41": 8956,
      "##son": 8957,
      "##LA": 8958,
      "##ker": 8959,
      "##ich": 8960,
      "##stem": 8961,
      "140": 8962,
      "RTX5060": 8963,
      "RDL": 8964,
      "add": 8965,
      "BOSS": 8966,
      "C1": 8967,
      "Fr": 8968,
      "un": 8969,
      "warp": 8970,
      "об": 8971,
      "130": 8972,
      "##former": 8973,
      "L2": 8974,
      "LED": 8975,
      "MC": 8976,
      "et": 8977,
      "is": 8978,
      "##hub": 8979,
      "##ュウ": 8980,
      "##anc": 8981,
      "##ingleton": 8982,
      "##oken": 8983,
      "close": 8984,
      "Deep": 8985,
      "##ilibili": 8986,
      "def": 8987,
      "##ire": 8988,
      "##ader": 8989,
      "##oll": 8990,
      "##ull": 8991,
      "##able": 8992,
      "##pha": 8993,
      "Mini": 8994,
      "R7": 8995,
      "Watch": 8996,
      "про": 8997,
      "Model": 8998,
      "##uper": 8999,
      "OIS": 9000,
      "Res": 9001,
      "from": 9002,
      "ph": 9003,
      "per": 9004,
      "val": 9005,
      "ヒン": 9006,
      "##cess": 9007,
      "##Hub": 9008,
      "##ニュウ": 9009,
      "2032": 9010,
      "##ale": 9011,
      "11V": 9012,
      "ヒンニュウ": 9013,
      "P2": 9014,
      "Type": 9015,
      "##bal": 9016,
      "##LE": 9017,
      "##43": 9018,
      "##ative": 9019,
      "##elf": 9020,
      "##ound": 9021,
      "##ffer": 9022,
      "ARMA": 9023,
      "TAGE": 9024,
      "AB": 9025,
      "ED": 9026,
      "L1": 9027,
      "Rob": 9028,
      "TV": 9029,
      "by": 9030,
      "ht": 9031,
      "sRGB": 9032,
      "##CK": 9033,
      "##лен": 9034,
      "##ER": 9035,
      "##und": 9036,
      "##orld": 9037,
      "##ump": 9038,
      "##iff": 9039,
      "client": 9040,
      "model": 9041,
      "IP68": 9042,
      "Core": 9043,
      "Data": 9044,
      "He": 9045,
      "VS": 9046,
      "bro": 9047,
      "##ress": 9048,
      "start": 9049,
      "##ization": 9050,
      "GitHub": 9051,
      "165Hz": 9052,
      "76": 9053,
      "700": 9054,
      "Bl": 9055,
      "CM": 9056,
      "el": 9057,
      "ed": 9058,
      "out": 9059,
      "with": 9060,
      "##mb": 9061,
      "##22": 9062,
      "##ва": 9063,
      "1999": 9064,
      "3014": 9065,
      "2009": 9066,
      "2007": 9067,
      "And": 9068,
      "EV": 9069,
      "bilibili": 9070,
      "вы": 9071,
      "##mg": 9072,
      "##77": 9073,
      "##35": 9074,
      "##NN": 9075,
      "##️⃣": 9076,
      "123": 9077,
      "##rop": 9078,
      "##ред": 9079,
      "##ava": 9080,
      "74": 9081,
      "82": 9082,
      "Bo": 9083,
      "Find": 9084,
      "HD": 9085,
      "Mat": 9086,
      "Switch": 9087,
      "i7": 9088,
      "top": 9089,
      "up": 9090,
      "во": 9091,
      "##СС": 9092,
      "##old": 9093,
      "301498": 9094,
      "TLC": 9095,
      "XX": 9096,
      "❗️": 9097,
      "##ци": 9098,
      "##evel": 9099,
      "print": 9100,
      "cont": 9101,
      "ASML": 9102,
      "86": 9103,
      "MP": 9104,
      "QC": 9105,
      "WA": 9106,
      "demo": 9107,
      "size": 9108,
      "##ил": 9109,
      "##uct": 9110,
      "188": 9111,
      "##use": 9112,
      "##log": 9113,
      "##istory": 9114,
      "CO": 9115,
      "Fl": 9116,
      "MQ": 9117,
      "SC": 9118,
      "ab": 9119,
      "2002": 9120,
      "##endo": 9121,
      "##aster": 9122,
      "69": 9123,
      "DRAM": 9124,
      "Gr": 9125,
      "Had": 9126,
      "su": 9127,
      "при": 9128,
      "это": 9129,
      "##ho": 9130,
      "##au": 9131,
      "##nn": 9132,
      "##5H": 9133,
      "2005": 9134,
      "2003": 9135,
      "##ational": 9136,
      "Ultra5": 9137,
      "Transformer": 9138,
      "CA": 9139,
      "Pl": 9140,
      "Top": 9141,
      "##CA": 9142,
      "##udan": 9143,
      "##ово": 9144,
      "NVIDI": 9145,
      "import": 9146,
      "NVIDIA": 9147,
      "360": 9148,
      "73": 9149,
      "Attention": 9150,
      "Windows": 9151,
      "##man": 9152,
      "##CS": 9153,
      "##96": 9154,
      "##alys": 9155,
      "15V": 9156,
      "##ome": 9157,
      "##uble": 9158,
      "5mm": 9159,
      "92": 9160,
      "96": 9161,
      "Br": 9162,
      "CE": 9163,
      "Cache": 9164,
      "X7": 9165,
      "##eh": 9166,
      "##fo": 9167,
      "##Book": 9168,
      "##AW": 9169,
      "115": 9170,
      "std": 9171,
      "##lobal": 9172,
      "1902": 9173,
      "III": 9174,
      "IP69": 9175,
      "MQTT": 9176,
      "AD": 9177,
      "Ser": 9178,
      "mean": 9179,
      "##eth": 9180,
      "2004": 9181,
      "##ivers": 9182,
      "##ake": 9183,
      "quant": 9184,
      "79": 9185,
      "97": 9186,
      "IPU": 9187,
      "PV": 9188,
      "We": 9189,
      "Way": 9190,
      "pd": 9191,
      "switch": 9192,
      "##mo": 9193,
      "##ning": 9194,
      "##PO": 9195,
      "##GHz": 9196,
      "##не": 9197,
      "##ми": 9198,
      "160": 9199,
      "1600": 9200,
      "arch": 9201,
      "Hadoop": 9202,
      "09": 9203,
      "0T": 9204,
      "61": 9205,
      "Eng": 9206,
      "Memory": 9207,
      "NS": 9208,
      "Pre": 9209,
      "end": 9210,
      "fudan": 9211,
      "par": 9212,
      "из": 9213,
      "##87": 9214,
      "##FI": 9215,
      "##aser": 9216,
      "33W": 9217,
      "##echn": 9218,
      "6A": 9219,
      "CON": 9220,
      "R9": 9221,
      "Rev": 9222,
      "ко": 9223,
      "##AI": 9224,
      "##ina": 9225,
      "##amb": 9226,
      "##ugh": 9227,
      "##intendo": 9228,
      "InFO": 9229,
      "985": 9230,
      "⭐️⭐️⭐️⭐️⭐": 9231,
      "CoW": 9232,
      "1080P": 9233,
      "MOD": 9234,
      "Music": 9235,
      "self": 9236,
      "we": 9237,
      "##yc": 9238,
      "##ар": 9239,
      "##pu": 9240,
      "##ere": 9241,
      "12G": 9242,
      "##read": 9243,
      "##lock": 9244,
      "spec": 9245,
      "##────────": 9246,
      "##TCH": 9247,
      "html": 9248,
      "63": 9249,
      "Or": 9250,
      "##ench": 9251,
      "##amma": 9252,
      "##hem": 9253,
      "ROG": 9254,
      "INT": 9255,
      "84": 9256,
      "El": 9257,
      "EN": 9258,
      "On": 9259,
      "PU": 9260,
      "TP": 9261,
      "X9": 9262,
      "not": 9263,
      "next": 9264,
      "##1000": 9265,
      "##les": 9266,
      "##ner": 9267,
      "##MT": 9268,
      "##UT": 9269,
      "##ution": 9270,
      "Unity": 9271,
      "##alysis": 9272,
      "Free": 9273,
      "IS": 9274,
      "Ne": 9275,
      "VA": 9276,
      "##PA": 9277,
      "##ак": 9278,
      "##ush": 9279,
      "90W": 9280,
      "32G": 9281,
      "##over": 9282,
      "##ения": 9283,
      "CoWoS": 9284,
      "5g": 9285,
      "5k": 9286,
      "62": 9287,
      "Cor": 9288,
      "Dr": 9289,
      "LT": 9290,
      "My": 9291,
      "Pet": 9292,
      "Ti": 9293,
      "Tur": 9294,
      "low": 9295,
      "##bps": 9296,
      "##сл": 9297,
      "##72": 9298,
      "##че": 9299,
      "##00mAh": 9300,
      "##eline": 9301,
      "##ayer": 9302,
      "github": 9303,
      "produ": 9304,
      "Phaser": 9305,
      "Col": 9306,
      "Ed": 9307,
      "scc": 9308,
      "##rr": 9309,
      "##ски": 9310,
      "##ST": 9311,
      "##abus": 9312,
      "USB3": 9313,
      "##rain": 9314,
      "##hys": 9315,
      "UFS4": 9316,
      "sccnn": 9317,
      "CD": 9318,
      "Gro": 9319,
      "Web": 9320,
      "de": 9321,
      "sign": 9322,
      "##als": 9323,
      "1300": 9324,
      "##ise": 9325,
      "##uss": 9326,
      "##ение": 9327,
      "##llabus": 9328,
      "93": 9329,
      "Ass": 9330,
      "Part": 9331,
      "bt": 9332,
      "ta": 9333,
      "##cl": 9334,
      "##con": 9335,
      "##64": 9336,
      "##MP": 9337,
      "##34": 9338,
      "##ama": 9339,
      "ARM": 9340,
      "FP16": 9341,
      "ACG": 9342,
      "HKC": 9343,
      "IMX": 9344,
      "broker": 9345,
      "5nm": 9346,
      "Hi": 9347,
      "L3": 9348,
      "New": 9349,
      "memory": 9350,
      "➡️": 9351,
      "##ring": 9352,
      "##ios": 9353,
      "##Phone": 9354,
      "##8H": 9355,
      "##ple": 9356,
      "##ated": 9357,
      "price": 9358,
      "Chip": 9359,
      "Is": 9360,
      "SSD": 9361,
      "gamma": 9362,
      "##iel": 9363,
      "##hn": 9364,
      "##yn": 9365,
      "##58": 9366,
      "##зи": 9367,
      "##FL": 9368,
      "##en3": 9369,
      "offer": 9370,
      "1995": 9371,
      "plt": 9372,
      "Inter": 9373,
      "Alpha": 9374,
      "##ных": 9375,
      "Redmi": 9376,
      "##shop": 9377,
      "DeepS": 9378,
      "HDMI": 9379,
      "77": 9380,
      "81": 9381,
      "Cu": 9382,
      "Har": 9383,
      "ISB": 9384,
      "global": 9385,
      "ma": 9386,
      "ре": 9387,
      "##sk": 9388,
      "##gy": 9389,
      "##76": 9390,
      "125": 9391,
      "##iss": 9392,
      "init": 9393,
      "1998": 9394,
      "##actory": 9395,
      "0025": 9396,
      "All": 9397,
      "double": 9398,
      "##ike": 9399,
      "##ength": 9400,
      "##тель": 9401,
      "##ritic": 9402,
      "ISBN": 9403,
      "91": 9404,
      "Ab": 9405,
      "Java": 9406,
      "SE": 9407,
      "Sch": 9408,
      "pre": 9409,
      "test": 9410,
      "до": 9411,
      "##cr": 9412,
      "##oid": 9413,
      "##hz": 9414,
      "##mon": 9415,
      "##OT": 9416,
      "##LU": 9417,
      "##ari": 9418,
      "##edict": 9419,
      "##ower": 9420,
      "##IST": 9421,
      "true": 9422,
      "Univers": 9423,
      "RA": 9424,
      "ROS": 9425,
      "SQ": 9426,
      "at": 9427,
      "dom": 9428,
      "time": 9429,
      "##жд": 9430,
      "##ange": 9431,
      "1949": 9432,
      "##arg": 9433,
      "##try": 9434,
      "steam": 9435,
      "##ations": 9436,
      "3500": 9437,
      "65W": 9438,
      "TSP": 9439,
      "System": 9440,
      "##attern": 9441,
      "Aut": 9442,
      "Boss": 9443,
      "IT": 9444,
      "Man": 9445,
      "NO": 9446,
      "Net": 9447,
      "co": 9448,
      "net": 9449,
      "op": 9450,
      "vol": 9451,
      "##oad": 9452,
      "##HO": 9453,
      "##ши": 9454,
      "##LO": 9455,
      "##row": 9456,
      "##acritic": 9457,
      "##ude": 9458,
      "##ста": 9459,
      "Theory": 9460,
      "##nits": 9461,
      "Genre": 9462,
      "9500": 9463,
      "all": 9464,
      "Bu": 9465,
      "GPS": 9466,
      "Ru": 9467,
      "SM": 9468,
      "die": 9469,
      "eshop": 9470,
      "ip": 9471,
      "nintendo": 9472,
      "tile": 9473,
      "##gf": 9474,
      "##ds": 9475,
      "##pos": 9476,
      "##WS": 9477,
      "##чи": 9478,
      "##━━": 9479,
      "##edu": 9480,
      "##urr": 9481,
      "1992": 9482,
      "1997": 9483,
      "1994": 9484,
      "##ного": 9485,
      "doi": 9486,
      "HDR400": 9487,
      "Studio": 9488,
      "metacritic": 9489,
      "DeepSeek": 9490,
      "Ant": 9491,
      "BC": 9492,
      "Fast": 9493,
      "OK": 9494,
      "PPS": 9495,
      "core": 9496,
      "dr": 9497,
      "fl": 9498,
      "void": 9499,
      "го": 9500,
      "##ai": 9501,
      "##EN": 9502,
      "##work": 9503,
      "##X3": 9504,
      "104": 9505,
      "180Hz": 9506,
      "2500": 9507,
      "##ide": 9508,
      "★★★★★": 9509,
      "Waymo": 9510,
      "CP": 9511,
      "DUV": 9512,
      "ET": 9513,
      "LG": 9514,
      "No": 9515,
      "Unit": 9516,
      "ev": 9517,
      "lag": 9518,
      "mat": 9519,
      "ser": 9520,
      "wh": 9521,
      "##oy": 9522,
      "##95": 9523,
      "##YT": 9524,
      "##era": 9525,
      "Process": 9526,
      "##isc": 9527,
      "80W": 9528,
      "##ection": 9529,
      "##urnal": 9530,
      "F1": 9531,
      "GS": 9532,
      "K90": 9533,
      "Mult": 9534,
      "OV": 9535,
      "SL": 9536,
      "bas": 9537,
      "games": 9538,
      "iOS": 9539,
      "type": 9540,
      "##ек": 9541,
      "##ви": 9542,
      "##LL": 9543,
      "##85": 9544,
      "1980": 9545,
      "##roid": 9546,
      "##ephy": 9547,
      "##OMO": 9548,
      "##obe": 9549,
      "Comput": 9550,
      "##earch": 9551,
      "PCIE": 9552,
      "static": 9553,
      "btn": 9554,
      "##ephyr": 9555,
      "94": 9556,
      "AP": 9557,
      "Ace": 9558,
      "DP": 9559,
      "Mark": 9560,
      "Not": 9561,
      "Si": 9562,
      "Sim": 9563,
      "SoC": 9564,
      "VR": 9565,
      "XB": 9566,
      "so": 9567,
      "##sc": 9568,
      "##HD": 9569,
      "##±0": 9570,
      "30W": 9571,
      "##ura": 9572,
      "##loc": 9573,
      "120W": 9574,
      "##ework": 9575,
      "FP32": 9576,
      "apple": 9577,
      "xxx": 9578,
      "##rror": 9579,
      "2TB": 9580,
      "900": 9581,
      "DDR": 9582,
      "Dec": 9583,
      "Four": 9584,
      "L4": 9585,
      "RL": 9586,
      "Techn": 9587,
      "Vir": 9588,
      "You": 9589,
      "ac": 9590,
      "nm": 9591,
      "КП": 9592,
      "##cel": 9593,
      "##cul": 9594,
      "##min": 9595,
      "##fl": 9596,
      "##ну": 9597,
      "##нев": 9598,
      "##der": 9599,
      "##67": 9600,
      "##arr": 9601,
      "##icro": 9602,
      "50W": 9603,
      "170": 9604,
      "##load": 9605,
      "##loud": 9606,
      "1991": 9607,
      "1990": 9608,
      "##ific": 9609,
      "##ной": 9610,
      "##ranch": 9611,
      "##каз": 9612,
      "buffer": 9613,
      "Quant": 9614,
      "КПСС": 9615,
      "1ms": 9616,
      "Ev": 9617,
      "QQ": 9618,
      "Se": 9619,
      "UP": 9620,
      "col": 9621,
      "equ": 9622,
      "fil": 9623,
      "it": 9624,
      "пар": 9625,
      "##fit": 9626,
      "##HA": 9627,
      "##RI": 9628,
      "##UI": 9629,
      "##ме": 9630,
      "##⃣️": 9631,
      "##ica": 9632,
      "##ett": 9633,
      "119": 9634,
      "240Hz": 9635,
      "256GB": 9636,
      "рабо": 9637,
      "TCL": 9638,
      "University": 9639,
      "3nm": 9640,
      "71": 9641,
      "EP": 9642,
      "LYT": 9643,
      "M1": 9644,
      "Po": 9645,
      "Par": 9646,
      "So": 9647,
      "Sol": 9648,
      "rev": 9649,
      "tag": 9650,
      "trans": 9651,
      "us": 9652,
      "watch": 9653,
      "пред": 9654,
      "##na": 9655,
      "##84": 9656,
      "##SS": 9657,
      "##Size": 9658,
      "##RO": 9659,
      "##ча": 9660,
      "##alse": 9661,
      "##odot": 9662,
      "##ision": 9663,
      "40W": 9664,
      "##essage": 9665,
      "##реж": 9666,
      "conf": 9667,
      "##ave": 9668,
      "trade": 9669,
      "##AND": 9670,
      "WATCH": 9671,
      "3d": 9672,
      "Key": 9673,
      "Mesh": 9674,
      "Neo": 9675,
      "Out": 9676,
      "PT": 9677,
      "Plus": 9678,
      "Ri": 9679,
      "av": 9680,
      "be": 9681,
      "back": 9682,
      "you": 9683,
      "По": 9684,
      "то": 9685,
      "##book": 9686,
      "##93": 9687,
      "##си": 9688,
      "##ума": 9689,
      "##RE": 9690,
      "##ZD": 9691,
      "10nm": 9692,
      "1800": 9693,
      "##urv": 9694,
      "##ural": 9695,
      "##ods": 9696,
      "##ement": 9697,
      "MAC": 9698,
      "##ocal": 9699,
      "PDIST": 9700,
      "раз": 9701,
      "##SIM": 9702,
      "⭐️⭐️⭐️⭐️⭐️": 9703,
      "species": 9704,
      "Turbo": 9705,
      "A1": 9706,
      "HP": 9707,
      "Singleton": 9708,
      "name": 9709,
      "rel": 9710,
      "##rib": 9711,
      "##68": 9712,
      "##TE": 9713,
      "##inc": 9714,
      "##orch": 9715,
      "146": 9716,
      "##1010": 9717,
      "##1200": 9718,
      "211": 9719,
      "230": 9720,
      "Analysis": 9721,
      "Comp": 9722,
      "##ramework": 9723,
      "Game": 9724,
      "Li": 9725,
      "Phys": 9726,
      "RE": 9727,
      "Sk": 9728,
      "Win": 9729,
      "bit": 9730,
      "des": 9731,
      "feat": 9732,
      "po": 9733,
      "rep": 9734,
      "sol": 9735,
      "tw": 9736,
      "Бреж": 9737,
      "его": 9738,
      "##ед": 9739,
      "##71": 9740,
      "##BC": 9741,
      "##LLM": 9742,
      "##31": 9743,
      "##ги": 9744,
      "##eriv": 9745,
      "##atility": 9746,
      "108": 9747,
      "##etch": 9748,
      "##chy": 9749,
      "##ions": 9750,
      "14nm": 9751,
      "5060": 9752,
      "const": 9753,
      "##mail": 9754,
      "Adobe": 9755,
      "Think": 9756,
      "##encil": 9757,
      "⭐⭐⭐⭐⭐": 9758,
      "Брежнев": 9759,
      "2mm": 9760,
      "Ac": 9761,
      "Car": 9762,
      "Gre": 9763,
      "LO": 9764,
      "SD": 9765,
      "Token": 9766,
      "error": 9767,
      "gen": 9768,
      "he": 9769,
      "он": 9770,
      "##sd": 9771,
      "##Pos": 9772,
      "##ам": 9773,
      "##pro": 9774,
      "##ры": 9775,
      "##RM": 9776,
      "##RA": 9777,
      "##0000": 9778,
      "##ero": 9779,
      "##ates": 9780,
      "##ading": 9781,
      "##lement": 9782,
      "##olic": 9783,
      "##ube": 9784,
      "##aph": 9785,
      "##unction": 9786,
      "Anim": 9787,
      "this": 9788,
      "wifi7": 9789,
      "CEO": 9790,
      "002594": 9791,
      "1TB": 9792,
      "8s": 9793,
      "9000": 9794,
      "ES": 9795,
      "Ge": 9796,
      "IOPS": 9797,
      "Kn": 9798,
      "Mar": 9799,
      "NAND": 9800,
      "OUT": 9801,
      "SRAM": 9802,
      "V2": 9803,
      "acc": 9804,
      "max": 9805,
      "main": 9806,
      "message": 9807,
      "##eed": 9808,
      "##PPS": 9809,
      "##Plus": 9810,
      "##da": 9811,
      "##In": 9812,
      "##ук": 9813,
      "##42": 9814,
      "##kt": 9815,
      "##FET": 9816,
      "##ared": 9817,
      "##ute": 9818,
      "220": 9819,
      "##udi": 9820,
      "##ffect": 9821,
      "##ipt": 9822,
      "Gen5": 9823,
      "Gen3": 9824,
      "##etail": 9825,
      "struct": 9826,
      "##лож": 9827,
      "MiPPS": 9828,
      "param": 9829,
      "##hemat": 9830,
      "Fourier": 9831,
      "парти": 9832,
      "5T": 9833,
      "9400": 9834,
      "Ho": 9835,
      "LS": 9836,
      "Log": 9837,
      "NPU": 9838,
      "Wh": 9839,
      "aut": 9840,
      "detail": 9841,
      "eSIM": 9842,
      "mAh": 9843,
      "python": 9844,
      "push": 9845,
      "qq": 9846,
      "sch": 9847,
      "##lan": 9848,
      "##nect": 9849,
      "##53": 9850,
      "##ля": 9851,
      "##inal": 9852,
      "##ines": 9853,
      "##apt": 9854,
      "5000W": 9855,
      "inter": 9856,
      "Cont": 9857,
      "##asket": 9858,
      "##ycle": 9859,
      "ISO": 9860,
      "##erived": 9861,
      "AG": 9862,
      "BV": 9863,
      "Cal": 9864,
      "Cau": 9865,
      "Day": 9866,
      "Dav": 9867,
      "EMI": 9868,
      "Gal": 9869,
      "L5": 9870,
      "MZD": 9871,
      "NAS": 9872,
      "Sm": 9873,
      "SW": 9874,
      "Sub": 9875,
      "Time": 9876,
      "X300": 9877,
      "bank": 9878,
      "branch": 9879,
      "gro": 9880,
      "key": 9881,
      "mini": 9882,
      "pattern": 9883,
      "super": 9884,
      "мо": 9885,
      "ст": 9886,
      "##ah": 9887,
      "##52": 9888,
      "##су": 9889,
      "##де": 9890,
      "Prog": 9891,
      "60Hz": 9892,
      "##uds": 9893,
      "1996": 9894,
      "45W": 9895,
      "1982": 9896,
      "##ния": 9897,
      "ROE": 9898,
      "Magic8": 9899,
      "SIMD": 9900,
      "MCM": 9901,
      "##irect": 9902,
      "Cauchy": 9903,
      "260": 9904,
      "350": 9905,
      "At": 9906,
      "A7": 9907,
      "Cloud": 9908,
      "Do": 9909,
      "Del": 9910,
      "Per": 9911,
      "TN": 9912,
      "Tw": 9913,
      "amp": 9914,
      "boss": 9915,
      "cos": 9916,
      "code": 9917,
      "garch": 9918,
      "high": 9919,
      "jo": 9920,
      "zh": 9921,
      "##iet": 9922,
      "##lib": 9923,
      "##oT": 9924,
      "##tual": 9925,
      "##хо": 9926,
      "##га": 9927,
      "##SE": 9928,
      "##му": 9929,
      "##eral": 9930,
      "10V": 9931,
      "163": 9932,
      "##101": 9933,
      "##loat": 9934,
      "##40Hz": 9935,
      "28nm": 9936,
      "##ности": 9937,
      "Intern": 9938,
      "##ung": 9939,
      "MATH13018": 9940,
      "score": 9941,
      "John": 9942,
      "entry": 9943,
      "Gaudi": 9944,
      "CMOS": 9945,
      "##FLOPS": 9946,
      "EMIB": 9947,
      "AA": 9948,
      "Bar": 9949,
      "Batch": 9950,
      "DI": 9951,
      "Live": 9952,
      "NA": 9953,
      "OLS": 9954,
      "Py": 9955,
      "history": 9956,
      "over": 9957,
      "sl": 9958,
      "token": 9959,
      "##sp": 9960,
      "##01": 9961,
      "##yr": 9962,
      "##max": 9963,
      "##об": 9964,
      "##69": 9965,
      "##625": 9966,
      "##Max": 9967,
      "##OX": 9968,
      "##NPC": 9969,
      "##ward": 9970,
      "##que": 9971,
      "##alk": 9972,
      "5070": 9973,
      "50Mp": 9974,
      "##50HX": 9975,
      "##сто": 9976,
      "##own": 9977,
      "##raw": 9978,
      "⭐️⭐️⭐️": 9979,
      "★★★★": 9980,
      "PBT": 9981,
      "⭐⭐⭐⭐": 9982,
      "Journal": 9983,
      "value": 9984,
      "Mathemat": 9985,
      "abs": 9986,
      "Engine": 9987,
      "1K": 9988,
      "5W": 9989,
      "Bass": 9990,
      "Cr": 9991,
      "CS": 9992,
      "Gu": 9993,
      "GPT": 9994,
      "KV": 9995,
      "Min": 9996,
      "Text": 9997,
      "World": 9998,
      "bo": 9999,
      "gu": 10000,
      "part": 10001,
      "ru": 10002,
      "x86": 10003,
      "##line": 10004,
      "##500": 10005,
      "##ня": 10006,
      "##89": 10007,
      "##EV": 10008,
      "##ку": 10009,
      "##ature": 10010,
      "101": 10011,
      "##ital": 10012,
      "1970": 10013,
      "##omet": 10014,
      "##emann": 10015,
      "MAX": 10016,
      "Press": 10017,
      "##ights": 10018,
      "real": 10019,
      "##оль": 10020,
      "##mbol": 10021,
      "FC": 10022,
      "FI": 10023,
      "GR": 10024,
      "Gate": 10025,
      "IO": 10026,
      "IEE": 10027,
      "Layer": 10028,
      "Mo": 10029,
      "ME": 10030,
      "Map": 10031,
      "Pencil": 10032,
      "Soc": 10033,
      "WLP": 10034,
      "bl": 10035,
      "block": 10036,
      "web": 10037,
      "##rame": 10038,
      "##ias": 10039,
      "##iot": 10040,
      "##ton": 10041,
      "##aac": 10042,
      "##nb": 10043,
      "##те": 10044,
      "##7100": 10045,
      "##Ti": 10046,
      "##ins": 10047,
      "##usion": 10048,
      "##ategy": 10049,
      "80Wh": 10050,
      "##ulation": 10051,
      "320": 10052,
      "3200": 10053,
      "##eward": 10054,
      "##аль": 10055,
      "##ova": 10056,
      "1979": 10057,
      "Spring": 10058,
      "##GARCH": 10059,
      "syllabus": 10060,
      "##ency": 10061,
      "Android": 10062,
      "IEEE": 10063,
      "CI": 10064,
      "Dm": 10065,
      "Email": 10066,
      "Gasket": 10067,
      "Lear": 10068,
      "Ma": 10069,
      "MB": 10070,
      "MT": 10071,
      "Pack": 10072,
      "Rep": 10073,
      "Ref": 10074,
      "RPG": 10075,
      "ass": 10076,
      "my": 10077,
      "ни": 10078,
      "⚠️": 10079,
      "##ric": 10080,
      "##lish": 10081,
      "##Gen": 10082,
      "##54": 10083,
      "##dle": 10084,
      "##39": 10085,
      "##Ultra": 10086,
      "##FT": 10087,
      "##Flow": 10088,
      "##KB": 10089,
      "2030": 10090,
      "##eter": 10091,
      "##ings": 10092,
      "255": 10093,
      "25A": 10094,
      "##ivate": 10095,
      "##lout": 10096,
      "##hift": 10097,
      "Step": 10098,
      "##uler": 10099,
      "##aper": 10100,
      "7500": 10101,
      "##duction": 10102,
      "##ender": 10103,
      "Arch": 10104,
      "##ные": 10105,
      "Link": 10106,
      "67W": 10107,
      "000625": 10108,
      "True": 10109,
      "Studios": 10110,
      "WiFi7": 10111,
      "##ridge": 10112,
      "else": 10113,
      "##cript": 10114,
      "Virtual": 10115,
      "Riemann": 10116,
      "AV": 10117,
      "AE": 10118,
      "Base": 10119,
      "CT": 10120,
      "Des": 10121,
      "Derived": 10122,
      "NBA": 10123,
      "ON": 10124,
      "OS": 10125,
      "SP": 10126,
      "Sec": 10127,
      "TPC": 10128,
      "VMC": 10129,
      "Xe": 10130,
      "gal": 10131,
      "len": 10132,
      "num": 10133,
      "хо": 10134,
      "##ray": 10135,
      "##GS": 10136,
      "##5Hz": 10137,
      "##сп": 10138,
      "##AR": 10139,
      "##ря": 10140,
      "##Q1": 10141,
      "##ery": 10142,
      "##ana": 10143,
      "1950": 10144,
      "1960": 10145,
      "##adem": 10146,
      "##ason": 10147,
      "##otal": 10148,
      "##10000": 10149,
      "##mpl": 10150,
      "Chat": 10151,
      "##uster": 10152,
      "Adam": 10153,
      "PCIe4": 10154,
      "Хрущева": 10155,
      "P2P": 10156,
      "context": 10157,
      "##CAA": 10158,
      "8GB": 10159,
      "BU": 10160,
      "CG": 10161,
      "HV": 10162,
      "La": 10163,
      "Leb": 10164,
      "Me": 10165,
      "NT": 10166,
      "OD": 10167,
      "Phone": 10168,
      "Pura": 10169,
      "QA": 10170,
      "SK": 10171,
      "Super": 10172,
      "To": 10173,
      "mid": 10174,
      "vime": 10175,
      "ка": 10176,
      "ли": 10177,
      "##ein": 10178,
      "##cd": 10179,
      "##core": 10180,
      "##bnb": 10181,
      "##gue": 10182,
      "##game": 10183,
      "##ты": 10184,
      "##ез": 10185,
      "##900": 10186,
      "##IP": 10187,
      "##74": 10188,
      "##pr": 10189,
      "##ще": 10190,
      "##erg": 10191,
      "105": 10192,
      "##alth": 10193,
      "##rol": 10194,
      "20000": 10195,
      "##idth": 10196,
      "off": 10197,
      "inf": 10198,
      "##еня": 10199,
      "##udio": 10200,
      "IPC": 10201,
      "358H": 10202,
      "##рези": 10203,
      "Inv": 10204,
      "##ernel": 10205,
      "1957": 10206,
      "1953": 10207,
      "##afer": 10208,
      "##egr": 10209,
      "##～～～～": 10210,
      "ATP": 10211,
      "Series": 10212,
      "Isaac": 10213,
      "##urrent": 10214,
      "group": 10215,
      "International": 10216,
      "3C": 10217,
      "A4": 10218,
      "DAW": 10219,
      "F2": 10220,
      "Godot": 10221,
      "Hy": 10222,
      "History": 10223,
      "Med": 10224,
      "May": 10225,
      "Nik": 10226,
      "Pol": 10227,
      "T0": 10228,
      "am": 10229,
      "count": 10230,
      "dist": 10231,
      "i5": 10232,
      "man": 10233,
      "master": 10234,
      "no": 10235,
      "set": 10236,
      "##rix": 10237,
      "##ced": 10238,
      "##ium": 10239,
      "##GPT": 10240,
      "##46": 10241,
      "##per": 10242,
      "##ino": 10243,
      "10bit": 10244,
      "126": 10245,
      "##esgue": 10246,
      "##ollout": 10247,
      "##ential": 10248,
      "##isk": 10249,
      "##cept": 10250,
      "input": 10251,
      "incl": 10252,
      "##ume": 10253,
      "##ibr": 10254,
      "##рем": 10255,
      "##ove": 10256,
      "##astic": 10257,
      "1964": 10258,
      "##lush": 10259,
      "##седа": 10260,
      "Gauss": 10261,
      "MPV": 10262,
      "Elite": 10263,
      "##gf3": 10264,
      "equity": 10265,
      "Program": 10266,
      "2k": 10267,
      "Acc": 10268,
      "EA": 10269,
      "FL": 10270,
      "For": 10271,
      "Games": 10272,
      "NCAA": 10273,
      "Ret": 10274,
      "VC": 10275,
      "ep": 10276,
      "le": 10277,
      "sk": 10278,
      "Прези": 10279,
      "меня": 10280,
      "##ync": 10281,
      "##92": 10282,
      "##ль": 10283,
      "##Mbps": 10284,
      "##OW": 10285,
      "##Norm": 10286,
      "##пи": 10287,
      "##ров": 10288,
      "##Framework": 10289,
      "##onn": 10290,
      "##onic": 10291,
      "##itor": 10292,
      "##itect": 10293,
      "##ents": 10294,
      "240": 10295,
      "##oth": 10296,
      "store": 10297,
      "##ape": 10298,
      "1993": 10299,
      "300Hz": 10300,
      "##mpt": 10301,
      "MATH13000": 10302,
      "1988": 10303,
      "1976": 10304,
      "1966": 10305,
      "Spark": 10306,
      "TSMC": 10307,
      "arX": 10308,
      "Art": 10309,
      "Airbnb": 10310,
      "anim": 10311,
      "10000mAh": 10312,
      "##ства": 10313,
      "OpenAI": 10314,
      "был": 10315,
      "phot": 10316,
      "##overos": 10317,
      "product": 10318,
      "Chiplet": 10319,
      "##educe": 10320,
      "feature": 10321,
      "##Position": 10322,
      "ChatGPT": 10323,
      "Lebesgue": 10324,
      "Президи": 10325,
      "AMO": 10326,
      "Bit": 10327,
      "Book": 10328,
      "Bell": 10329,
      "Em": 10330,
      "Fan": 10331,
      "Hot": 10332,
      "IBM": 10333,
      "ML": 10334,
      "Rust": 10335,
      "TO": 10336,
      "TÜ": 10337,
      "TPU": 10338,
      "Val": 10339,
      "Vlog": 10340,
      "WIN": 10341,
      "chip": 10342,
      "day": 10343,
      "fa": 10344,
      "mm": 10345,
      "train": 10346,
      "work": 10347,
      "ΔE": 10348,
      "##co": 10349,
      "##ao": 10350,
      "##нов": 10351,
      "##Impl": 10352,
      "##DC": 10353,
      "##j7": 10354,
      "##val": 10355,
      "##ano": 10356,
      "##ets": 10357,
      "##led": 10358,
      "##uman": 10359,
      "##ppo": 10360,
      "##сту": 10361,
      "##сть": 10362,
      "##ift": 10363,
      "##andas": 10364,
      "1989": 10365,
      "1983": 10366,
      "##TBW": 10367,
      "Class": 10368,
      "##play": 10369,
      "Black": 10370,
      "##evelop": 10371,
      "Play": 10372,
      "SWOT": 10373,
      "arXiv": 10374,
      "AMOLED": 10375,
      "TÜV": 10376,
      "0x": 10377,
      "3K": 10378,
      "4A": 10379,
      "AX3": 10380,
      "BT": 10381,
      "CR": 10382,
      "Foveros": 10383,
      "LU": 10384,
      "Lang": 10385,
      "Mil": 10386,
      "PM": 10387,
      "QLC": 10388,
      "RED": 10389,
      "ZV": 10390,
      "Zen": 10391,
      "ap": 10392,
      "me": 10393,
      "mp": 10394,
      "ob": 10395,
      "sum": 10396,
      "##xy": 10397,
      "##ron": 10398,
      "##res": 10399,
      "##rite": 10400,
      "##mark": 10401,
      "##now": 10402,
      "##ос": 10403,
      "##Cl": 10404,
      "##61": 10405,
      "##NC": 10406,
      "##atic": 10407,
      "##stant": 10408,
      "111": 10409,
      "##olio": 10410,
      "##108": 10411,
      "step": 10412,
      "##oco": 10413,
      "##istem": 10414,
      "990": 10415,
      "##ался": 10416,
      "##ersion": 10417,
      "1986": 10418,
      "Alg": 10419,
      "##45H": 10420,
      "под": 10421,
      "512GB": 10422,
      "RTX5070": 10423,
      "build": 10424,
      "ETF": 10425,
      "David": 10426,
      "DIY": 10427,
      "4s": 10428,
      "BF": 10429,
      "C4": 10430,
      "Factor": 10431,
      "HE": 10432,
      "IMD": 10433,
      "Lo": 10434,
      "Lab": 10435,
      "Meta": 10436,
      "Pop": 10437,
      "RX": 10438,
      "TOPS": 10439,
      "cpu": 10440,
      "go": 10441,
      "la": 10442,
      "lin": 10443,
      "music": 10444,
      "pass": 10445,
      "rollout": 10446,
      "singleton": 10447,
      "ts": 10448,
      "ос": 10449,
      "##ca": 10450,
      "##iod": 10451,
      "##yle": 10452,
      "##dr": 10453,
      "##MHz": 10454,
      "##про": 10455,
      "##eric": 10456,
      "##itt": 10457,
      "12000": 10458,
      "AIC": 10459,
      "1100": 10460,
      "info": 10461,
      "##овет": 10462,
      "996": 10463,
      "private": 10464,
      "1985": 10465,
      "##ocket": 10466,
      "##ным": 10467,
      "##ference": 10468,
      "TensorFlow": 10469,
      "##azz": 10470,
      "PRO": 10471,
      "##FIG": 10472,
      "CONFIG": 10473,
      "INT8": 10474,
      "14650HX": 10475,
      "CB": 10476,
      "EL": 10477,
      "Fama": 10478,
      "IoT": 10479,
      "Q1": 10480,
      "RV": 10481,
      "Sw": 10482,
      "Tor": 10483,
      "TWS": 10484,
      "VII": 10485,
      "WPS": 10486,
      "iloc": 10487,
      "pe": 10488,
      "se": 10489,
      "zephyr": 10490,
      "все": 10491,
      "##ri": 10492,
      "##oot": 10493,
      "##ts": 10494,
      "##97": 10495,
      "##de": 10496,
      "##7000": 10497,
      "##YS": 10498,
      "##Master": 10499,
      "##82": 10500,
      "##37": 10501,
      "##uc": 10502,
      "##unt": 10503,
      "##00MB": 10504,
      "##ross": 10505,
      "comp": 10506,
      "##50X": 10507,
      "##ubase": 10508,
      "225H": 10509,
      "##енно": 10510,
      "##ife": 10511,
      "##ibiot": 10512,
      "clone": 10513,
      "##ector": 10514,
      "China": 10515,
      "##allel": 10516,
      "##iance": 10517,
      "##ixin": 10518,
      "PDF": 10519,
      "128G": 10520,
      "String": 10521,
      "position": 10522,
      "Flash": 10523,
      "Graph": 10524,
      "Review": 10525,
      "SQD": 10526,
      "review": 10527,
      "Barra": 10528,
      "480": 10529,
      "Be": 10530,
      "CH": 10531,
      "CPI": 10532,
      "D3": 10533,
      "DOMO": 10534,
      "EM": 10535,
      "FEM": 10536,
      "G27": 10537,
      "JD": 10538,
      "LSI": 10539,
      "Mel": 10540,
      "MMO": 10541,
      "Num": 10542,
      "Over": 10543,
      "OTA": 10544,
      "Pa": 10545,
      "PH": 10546,
      "Qw": 10547,
      "T1": 10548,
      "Uber": 10549,
      "X3": 10550,
      "ant": 10551,
      "cal": 10552,
      "cle": 10553,
      "fsd": 10554,
      "kernel": 10555,
      "length": 10556,
      "mi": 10557,
      "rand": 10558,
      "rob": 10559,
      "tx": 10560,
      "сам": 10561,
      "##ior": 10562,
      "##ience": 10563,
      "##bert": 10564,
      "##ye": 10565,
      "##ym": 10566,
      "##folio": 10567,
      "##57": 10568,
      "##за": 10569,
      "##зна": 10570,
      "##62": 10571,
      "##63": 10572,
      "##47": 10573,
      "##Torch": 10574,
      "##ke": 10575,
      "##ES": 10576,
      "2028": 10577,
      "135": 10578,
      "##reate": 10579,
      "##emp": 10580,
      "##istic": 10581,
      "##irst": 10582,
      "##iffer": 10583,
      "500nit": 10584,
      "##торы": 10585,
      "1987": 10586,
      "1984": 10587,
      "1974": 10588,
      "1958": 10589,
      "##ource": 10590,
      "FPGA": 10591,
      "Score": 10592,
      "system": 10593,
      "QC2": 10594,
      "##enchmark": 10595,
      "##ediction": 10596,
      "baseline": 10597,
      "##казал": 10598,
      "LSY": 10599,
      "PyTorch": 10600,
      "MapR": 10601,
      "include": 10602,
      "##itecture": 10603,
      "AX3000": 10604,
      "IMDb": 10605,
      "750": 10606,
      "A2": 10607,
      "BA": 10608,
      "CV": 10609,
      "DLC": 10610,
      "Daw": 10611,
      "FR": 10612,
      "False": 10613,
      "ISA": 10614,
      "JN": 10615,
      "LLM": 10616,
      "Mind": 10617,
      "Micro": 10618,
      "NU": 10619,
      "NSA": 10620,
      "Off": 10621,
      "Q2": 10622,
      "V3": 10623,
      "VPU": 10624,
      "WD": 10625,
      "are": 10626,
      "float": 10627,
      "i9": 10628,
      "js": 10629,
      "map": 10630,
      "oppo": 10631,
      "py": 10632,
      "sim": 10633,
      "shift": 10634,
      "Плен": 10635,
      "ССС": 10636,
      "как": 10637,
      "сво": 10638,
      "член": 10639,
      "##xg": 10640,
      "##by": 10641,
      "##me": 10642,
      "##mod": 10643,
      "##ness": 10644,
      "##niz": 10645,
      "##IB": 10646,
      "##IFI": 10647,
      "##DS": 10648,
      "##EA": 10649,
      "##ду": 10650,
      "##гда": 10651,
      "##XT": 10652,
      "##FA": 10653,
      "##же": 10654,
      "102": 10655,
      "##icon": 10656,
      "##ley": 10657,
      "##ample": 10658,
      "##otion": 10659,
      "##10100": 10660,
      "MAP": 10661,
      "PCB": 10662,
      "##ized": 10663,
      "##ibniz": 10664,
      "##NACK": 10665,
      "Ultra9": 10666,
      "Ultra7": 10667,
      "play": 10668,
      "##ель": 10669,
      "1952": 10670,
      "Scale": 10671,
      "TensorRT": 10672,
      "##berg": 10673,
      "Leibniz": 10674,
      "weixin": 10675,
      "One": 10676,
      "MyFramework": 10677,
      "Groq": 10678,
      "##ynam": 10679,
      "ipad": 10680,
      "Techno": 10681,
      "Cloudera": 10682,
      "Mathematical": 10683,
      "galgame": 10684,
      "##ibrary": 10685,
      "Президиума": 10686,
      "REDMI": 10687,
      "СССР": 10688,
      "4mm": 10689,
      "432": 10690,
      "Bin": 10691,
      "Eu": 10692,
      "Kim": 10693,
      "K80": 10694,
      "Math": 10695,
      "Ob": 10696,
      "P1": 10697,
      "PP": 10698,
      "Rade": 10699,
      "SO": 10700,
      "TFLOPS": 10701,
      "cor": 10702,
      "load": 10703,
      "port": 10704,
      "pandas": 10705,
      "red": 10706,
      "но": 10707,
      "сек": 10708,
      "├──": 10709,
      "##ler": 10710,
      "##ous": 10711,
      "##yd": 10712,
      "##aa": 10713,
      "##ne": 10714,
      "##PM": 10715,
      "##zon": 10716,
      "##C1": 10717,
      "##Ch": 10718,
      "##IPS": 10719,
      "##LB": 10720,
      "##DI": 10721,
      "##36": 10722,
      "##38": 10723,
      "##jor": 10724,
      "##па": 10725,
      "##ve": 10726,
      "##бы": 10727,
      "20W": 10728,
      "##erm": 10729,
      "##erge": 10730,
      "##ality": 10731,
      "##roduction": 10732,
      "##icle": 10733,
      "16GB": 10734,
      "##ures": 10735,
      "##ream": 10736,
      "plot": 10737,
      "##asso": 10738,
      "##unl": 10739,
      "##ebook": 10740,
      "connect": 10741,
      "##aken": 10742,
      "PS4": 10743,
      "that": 10744,
      "##ный": 10745,
      "##itional": 10746,
      "read": 10747,
      "Excel": 10748,
      "было": 10749,
      "IMU": 10750,
      "VIP": 10751,
      "ABS": 10752,
      "edit": 10753,
      "12345": 10754,
      "CONNACK": 10755,
      "volatility": 10756,
      "SLAM": 10757,
      "Note": 10758,
      "Calcul": 10759,
      "Springer": 10760,
      "Dawn": 10761,
      "Radeon": 10762,
      "секре": 10763,
      "Ai": 10764,
      "Cour": 10765,
      "Camb": 10766,
      "DO": 10767,
      "EQ": 10768,
      "Factory": 10769,
      "High": 10770,
      "Level": 10771,
      "None": 10772,
      "Opt": 10773,
      "OEM": 10774,
      "PPI": 10775,
      "Pool": 10776,
      "Rel": 10777,
      "Sl": 10778,
      "Su": 10779,
      "V9": 10780,
      "deb": 10781,
      "lol": 10782,
      "mem": 10783,
      "ok": 10784,
      "poll": 10785,
      "reward": 10786,
      "sin": 10787,
      "дру": 10788,
      "ком": 10789,
      "##rel": 10790,
      "##lc": 10791,
      "##b5": 10792,
      "##Pr": 10793,
      "##ту": 10794,
      "##Lab": 10795,
      "##81": 10796,
      "##800": 10797,
      "##ji": 10798,
      "##uage": 10799,
      "##мо": 10800,
      "##KI": 10801,
      "##itle": 10802,
      "1920": 10803,
      "122": 10804,
      "124": 10805,
      "##urs": 10806,
      "134": 10807,
      "##igin": 10808,
      "theory": 10809,
      "##inear": 10810,
      "##ebra": 10811,
      "##achine": 10812,
      "project": 10813,
      "##ormal": 10814,
      "1962": 10815,
      "1963": 10816,
      "##ении": 10817,
      "##lete": 10818,
      "art": 10819,
      "share": 10820,
      "symbol": 10821,
      "stocks": 10822,
      "RDMA": 10823,
      "##BACK": 10824,
      "BE7": 10825,
      "npc": 10826,
      "substant": 10827,
      "reset": 10828,
      "elif": 10829,
      "PUBACK": 10830,
      "Cukt": 10831,
      "Manag": 10832,
      "evt": 10833,
      "series": 10834,
      "Multi": 10835,
      "XBOX": 10836,
      "##flix": 10837,
      "Second": 10838,
      "BF16": 10839,
      "секрета": 10840,
      "substantia": 10841,
      "Cuktech": 10842,
      "210": 10843,
      "A100": 10844,
      "Bas": 10845,
      "Can": 10846,
      "Di": 10847,
      "DDR5": 10848,
      "Demo": 10849,
      "Econ": 10850,
      "FA": 10851,
      "Hub": 10852,
      "Jac": 10853,
      "KN": 10854,
      "LE": 10855,
      "List": 10856,
      "Power": 10857,
      "QoS": 10858,
      "R5": 10859,
      "Tag": 10860,
      "UR": 10861,
      "VLA": 10862,
      "WHO": 10863,
      "X8": 10864,
      "di": 10865,
      "ear": 10866,
      "fre": 10867,
      "tv": 10868,
      "title": 10869,
      "wik": 10870,
      "пе": 10871,
      "те": 10872,
      "##eep": 10873,
      "##160": 10874,
      "##ba": 10875,
      "##air": 10876,
      "##PL": 10877,
      "##face": 10878,
      "##GT": 10879,
      "##51": 10880,
      "##9000": 10881,
      "##са": 10882,
      "##зя": 10883,
      "##M5": 10884,
      "##BL": 10885,
      "##3A": 10886,
      "##NP": 10887,
      "##ues": 10888,
      "##Frame": 10889,
      "##Qu": 10890,
      "##щи": 10891,
      "1024": 10892,
      "##ors": 10893,
      "1900": 10894,
      "##els": 10895,
      "##osk": 10896,
      "##reak": 10897,
      "6016": 10898,
      "##ense": 10899,
      "##esting": 10900,
      "##duct": 10901,
      "##mazon": 10902,
      "ECOMMERCExg": 10903,
      "55W": 10904,
      "Comm": 10905,
      "change": 10906,
      "##ствен": 10907,
      "TCB": 10908,
      "Robert": 10909,
      "DataFrame": 10910,
      "topic": 10911,
      "Netflix": 10912,
      "партии": 10913,
      "Logic": 10914,
      "стра": 10915,
      "ONE": 10916,
      "Miloco": 10917,
      "601633": 10918,
      "2A": 10919,
      "Act": 10920,
      "ALU": 10921,
      "Amazon": 10922,
      "Bi": 10923,
      "Byt": 10924,
      "Cubase": 10925,
      "DN": 10926,
      "Dis": 10927,
      "Ele": 10928,
      "Fran": 10929,
      "K3": 10930,
      "Kunl": 10931,
      "Ll": 10932,
      "LM": 10933,
      "Lake": 10934,
      "M2": 10935,
      "Meth": 10936,
      "ONN": 10937,
      "P5": 10938,
      "QD": 10939,
      "RS": 10940,
      "Sil": 10941,
      "SGS": 10942,
      "YO": 10943,
      "Y700": 10944,
      "ax": 10945,
      "ag": 10946,
      "cycle": 10947,
      "dat": 10948,
      "diff": 10949,
      "fig": 10950,
      "lab": 10951,
      "mark": 10952,
      "mult": 10953,
      "rt": 10954,
      "rp": 10955,
      "reb": 10956,
      "sort": 10957,
      "tim": 10958,
      "world": 10959,
      "xLLM": 10960,
      "##ii": 10961,
      "##her": 10962,
      "##app": 10963,
      "##GL": 10964,
      "##G27": 10965,
      "##dd": 10966,
      "##ding": 10967,
      "##BI": 10968,
      "##ware": 10969,
      "##ым": 10970,
      "##St": 10971,
      "##ony": 10972,
      "##ename": 10973,
      "##anov": 10974,
      "1945": 10975,
      "##ala": 10976,
      "##lex": 10977,
      "136": 10978,
      "##isual": 10979,
      "ins": 10980,
      "##ability": 10981,
      "2800": 10982,
      "##ние": 10983,
      "##45HX": 10984,
      "alpha": 10985,
      "##ком": 10986,
      "1972": 10987,
      "intel": 10988,
      "GTG": 10989,
      "returns": 10990,
      "MateBook": 10991,
      "Close": 10992,
      "quot": 10993,
      "Phil": 10994,
      "buf": 10995,
      "logo": 10996,
      "##llm": 10997,
      "MIT": 10998,
      "SN8": 10999,
      "EVA": 11000,
      "MPKI": 11001,
      "SCP": 11002,
      "suv": 11003,
[...]
